{
  "version": "1.0",
  "truncation": null,
  "padding": null,
  "added_tokens": [
    {
      "id": 0,
      "content": "[UNK]",
      "single_word": false,
      "lstrip": false,
      "rstrip": false,
      "normalized": false,
      "special": true
    },
    {
      "id": 1,
      "content": "[BOS]",
      "single_word": false,
      "lstrip": false,
      "rstrip": false,
      "normalized": false,
      "special": true
    },
    {
      "id": 2,
      "content": "[EOS]",
      "single_word": false,
      "lstrip": false,
      "rstrip": false,
      "normalized": false,
      "special": true
    }
  ],
  "normalizer": {
    "type": "Sequence",
    "normalizers": [
      {
        "type": "NFKC"
      }
    ]
  },
  "pre_tokenizer": {
    "type": "Whitespace"
  },
  "post_processor": null,
  "decoder": null,
  "model": {
    "type": "Unigram",
    "unk_id": 0,
    "vocab": [
      [
        "[UNK]",
        0.0
      ],
      [
        "[BOS]",
        0.0
      ],
      [
        "[EOS]",
        0.0
      ],
      [
        "o",
        -2.8997768448035224
      ],
      [
        "t",
        -3.2430121148886144
      ],
      [
        "s",
        -3.2506893182030474
      ],
      [
        "the",
        -3.3215755643634495
      ],
      [
        ",",
        -3.330601973917606
      ],
      [
        ".",
        -3.3616780855368127
      ],
      [
        "a",
        -3.4950472698484916
      ],
      [
        "f",
        -3.830448243953164
      ],
      [
        "e",
        -3.8620318456489677
      ],
      [
        "i",
        -3.946753329589569
      ],
      [
        "and",
        -4.083458299824205
      ],
      [
        "n",
        -4.140735405262877
      ],
      [
        "'",
        -4.358304991208975
      ],
      [
        "in",
        -4.38096006690289
      ],
      [
        "\"",
        -4.537908007341009
      ],
      [
        "I",
        -4.749932860604289
      ],
      [
        "that",
        -4.760309893696704
      ],
      [
        "-",
        -4.832590722492803
      ],
      [
        "r",
        -5.00029674646985
      ],
      [
        "for",
        -5.087215471951357
      ],
      [
        "d",
        -5.176961546520282
      ],
      [
        "b",
        -5.313963218918374
      ],
      [
        "h",
        -5.322481836605643
      ],
      [
        "The",
        -5.371496124323478
      ],
      [
        "with",
        -5.408451465782733
      ],
      [
        "was",
        -5.488863603086177
      ],
      [
        "m",
        -5.538692062121921
      ],
      [
        "are",
        -5.555087652598154
      ],
      [
        "y",
        -5.6087819499303215
      ],
      [
        ":",
        -5.684185185194368
      ],
      [
        "you",
        -5.692953913661935
      ],
      [
        "have",
        -5.718411974457956
      ],
      [
        "w",
        -5.72268284926143
      ],
      [
        "(",
        -5.804041611124578
      ],
      [
        "by",
        -5.810055554957964
      ],
      [
        "from",
        -5.856273000073495
      ],
      [
        "not",
        -5.873633732411378
      ],
      [
        "this",
        -5.893739483281985
      ],
      [
        "l",
        -5.972867219776612
      ],
      [
        ")",
        -6.029998356396396
      ],
      [
        "has",
        -6.039850404266886
      ],
      [
        "A",
        -6.066464128339575
      ],
      [
        "his",
        -6.116415523198047
      ],
      [
        "they",
        -6.1686210704619455
      ],
      [
        "but",
        -6.169474068991706
      ],
      [
        "will",
        -6.204501614486615
      ],
      [
        "u",
        -6.243077484082104
      ],
      [
        "can",
        -6.247283298241463
      ],
      [
        "said",
        -6.2674139192552545
      ],
      [
        "one",
        -6.275892797965737
      ],
      [
        "their",
        -6.2965477117594055
      ],
      [
        "more",
        -6.320115118117869
      ],
      [
        "all",
        -6.3381048511719165
      ],
      [
        "S",
        -6.349694529478084
      ],
      [
        "about",
        -6.383698978594545
      ],
      [
        "who",
        -6.393499746570132
      ],
      [
        "would",
        -6.459758126701695
      ],
      [
        "out",
        -6.459876936057563
      ],
      [
        "g",
        -6.46008317584759
      ],
      [
        "which",
        -6.4687632831596
      ],
      [
        "up",
        -6.478283507290891
      ],
      [
        "were",
        -6.487230336715406
      ],
      [
        "had",
        -6.502201452559875
      ],
      [
        "been",
        -6.558228626176058
      ],
      [
        "?",
        -6.589927067240453
      ],
      [
        "like",
        -6.670513781369298
      ],
      [
        "ing",
        -6.69955707129837
      ],
      [
        "time",
        -6.720193083668832
      ],
      [
        "what",
        -6.7295225228973425
      ],
      [
        "your",
        -6.7359519089660385
      ],
      [
        "there",
        -6.743180972290006
      ],
      [
        "people",
        -6.7446993905852075
      ],
      [
        "than",
        -6.752091076487558
      ],
      [
        "when",
        -6.7756176708124
      ],
      [
        "other",
        -6.800640287516529
      ],
      [
        "c",
        -6.815231068087234
      ],
      [
        "also",
        -6.827824461096812
      ],
      [
        "/",
        -6.848355012750458
      ],
      [
        "our",
        -6.852995774442418
      ],
      [
        "some",
        -6.855264222671291
      ],
      [
        "just",
        -6.868500972961774
      ],
      [
        "p",
        -6.896309425924537
      ],
      [
        "into",
        -6.902099079643634
      ],
      [
        "over",
        -6.915971355249498
      ],
      [
        "—",
        -6.9487143153804425
      ],
      [
        "1",
        -6.970363235935444
      ],
      [
        "But",
        -6.976278465997938
      ],
      [
        "This",
        -6.990318494297945
      ],
      [
        "them",
        -6.997559755834201
      ],
      [
        "new",
        -7.010444134262173
      ],
      [
        "only",
        -7.01791583739567
      ],
      [
        "her",
        -7.019540665151553
      ],
      [
        "We",
        -7.028006355304701
      ],
      [
        "He",
        -7.069921367866611
      ],
      [
        "get",
        -7.069923442438723
      ],
      [
        "could",
        -7.083803735064976
      ],
      [
        "T",
        -7.088917888149595
      ],
      [
        "M",
        -7.090960452616933
      ],
      [
        "year",
        -7.099310545469169
      ],
      [
        "first",
        -7.109267243458788
      ],
      [
        "how",
        -7.127290999109173
      ],
      [
        "–",
        -7.131614905099299
      ],
      [
        "two",
        -7.135504339814652
      ],
      [
        ";",
        -7.140239334603741
      ],
      [
        "even",
        -7.158533522292849
      ],
      [
        "any",
        -7.171155882798249
      ],
      [
        "2",
        -7.173513957134242
      ],
      [
        "after",
        -7.183348839067854
      ],
      [
        "because",
        -7.184615085853814
      ],
      [
        "way",
        -7.190061909516544
      ],
      [
        "most",
        -7.193615876882294
      ],
      [
        "make",
        -7.21428643489258
      ],
      [
        "now",
        -7.215626231426073
      ],
      [
        "D",
        -7.251506952368164
      ],
      [
        "And",
        -7.282144339597906
      ],
      [
        "years",
        -7.284130889193687
      ],
      [
        "$",
        -7.299406710499419
      ],
      [
        "him",
        -7.302825130990653
      ],
      [
        "these",
        -7.317783071079679
      ],
      [
        "back",
        -7.348942764551751
      ],
      [
        "very",
        -7.353215573245578
      ],
      [
        "being",
        -7.3624763244522065
      ],
      [
        "many",
        -7.37154140481597
      ],
      [
        "much",
        -7.386914105532545
      ],
      [
        "don",
        -7.391594149594262
      ],
      [
        "where",
        -7.401834592628239
      ],
      [
        "those",
        -7.414588049758011
      ],
      [
        "well",
        -7.428598251009062
      ],
      [
        "know",
        -7.4294214656882005
      ],
      [
        "should",
        -7.431122364568434
      ],
      [
        "use",
        -7.43892070728746
      ],
      [
        "work",
        -7.444196648259503
      ],
      [
        "3",
        -7.445498259805815
      ],
      [
        "think",
        -7.463077583653284
      ],
      [
        "ve",
        -7.472830071366779
      ],
      [
        "U",
        -7.481651503546981
      ],
      [
        "may",
        -7.498542791885415
      ],
      [
        "such",
        -7.500047188895776
      ],
      [
        "last",
        -7.500124232293947
      ],
      [
        "government",
        -7.502046325209946
      ],
      [
        "down",
        -7.532558424616687
      ],
      [
        "!",
        -7.532689861828077
      ],
      [
        "world",
        -7.539551921142101
      ],
      [
        "You",
        -7.54704259804763
      ],
      [
        "]",
        -7.554162914010803
      ],
      [
        "[",
        -7.5561712546130195
      ],
      [
        "right",
        -7.557540307208731
      ],
      [
        "good",
        -7.5590653214934225
      ],
      [
        "made",
        -7.56104238267878
      ],
      [
        "C",
        -7.5638079690873
      ],
      [
        "take",
        -7.563848583628543
      ],
      [
        "before",
        -7.567406160217137
      ],
      [
        "through",
        -7.577978727524258
      ],
      [
        "going",
        -7.583051680688415
      ],
      [
        "B",
        -7.58330831062978
      ],
      [
        "O",
        -7.583331160819133
      ],
      [
        "They",
        -7.594198871730921
      ],
      [
        "...",
        -7.605789706808029
      ],
      [
        "want",
        -7.60810938023822
      ],
      [
        "says",
        -7.625752566155226
      ],
      [
        "still",
        -7.628981776905251
      ],
      [
        "off",
        -7.639744495546083
      ],
      [
        "game",
        -7.640968219825677
      ],
      [
        "say",
        -7.64611128541922
      ],
      [
        "5",
        -7.648527717186138
      ],
      [
        "did",
        -7.6528598850154435
      ],
      [
        "There",
        -7.652952583905341
      ],
      [
        "same",
        -7.656294388210668
      ],
      [
        ").",
        -7.6833913713857775
      ],
      [
        "4",
        -7.684712207454407
      ],
      [
        "against",
        -7.687863078970581
      ],
      [
        "need",
        -7.690053569662883
      ],
      [
        "while",
        -7.691570792493206
      ],
      [
        "own",
        -7.697403792943316
      ],
      [
        "That",
        -7.699936895235258
      ],
      [
        "day",
        -7.711221966903349
      ],
      [
        "long",
        -7.712543053502776
      ],
      [
        "state",
        -7.712816195270369
      ],
      [
        "here",
        -7.724539831443067
      ],
      [
        "man",
        -7.730976016291693
      ],
      [
        "used",
        -7.738671637875923
      ],
      [
        "between",
        -7.7460227852873125
      ],
      [
        "part",
        -7.7484652171910895
      ],
      [
        "really",
        -7.7552290430415685
      ],
      [
        "k",
        -7.774951628666139
      ],
      [
        "around",
        -7.780645973224605
      ],
      [
        "end",
        -7.782962621416129
      ],
      [
        "10",
        -7.783514411556936
      ],
      [
        "For",
        -7.808204928284054
      ],
      [
        "three",
        -7.81572866640807
      ],
      [
        "%",
        -7.818592103255915
      ],
      [
        "ll",
        -7.825725212594099
      ],
      [
        "000",
        -7.829028102846117
      ],
      [
        "under",
        -7.8409261599218265
      ],
      [
        "New",
        -7.856420697554627
      ],
      [
        "old",
        -7.863729034650367
      ],
      [
        "P",
        -7.883923383261509
      ],
      [
        "both",
        -7.888979182540561
      ],
      [
        "life",
        -7.901272317593696
      ],
      [
        "R",
        -7.91067422974565
      ],
      [
        "something",
        -7.916381643888052
      ],
      [
        "each",
        -7.926125037713801
      ],
      [
        "system",
        -7.932656869177597
      ],
      [
        "since",
        -7.934413950245766
      ],
      [
        "might",
        -7.945125834038867
      ],
      [
        "another",
        -7.945732942251746
      ],
      [
        "--",
        -7.946361808888042
      ],
      [
        "team",
        -7.949638221841447
      ],
      [
        "does",
        -7.956056489749203
      ],
      [
        "public",
        -7.963365927998071
      ],
      [
        "L",
        -7.9686129959282415
      ],
      [
        "What",
        -7.976811173993701
      ],
      [
        "things",
        -7.976888628677601
      ],
      [
        "found",
        -7.982029040545838
      ],
      [
        "told",
        -7.983236698277251
      ],
      [
        "able",
        -7.985218490459518
      ],
      [
        "come",
        -7.988962124330223
      ],
      [
        "high",
        -7.9903436160600165
      ],
      [
        "H",
        -7.991936939010678
      ],
      [
        "every",
        -7.999437069035897
      ],
      [
        "When",
        -7.9994553980560195
      ],
      [
        "never",
        -8.00049352891451
      ],
      [
        "find",
        -8.008485951209442
      ],
      [
        "v",
        -8.012159224142714
      ],
      [
        "less",
        -8.018732234511488
      ],
      [
        "point",
        -8.020574752215696
      ],
      [
        "during",
        -8.023930342406803
      ],
      [
        "next",
        -8.041447295172635
      ],
      [
        "help",
        -8.042597617600773
      ],
      [
        "American",
        -8.044410306027087
      ],
      [
        "case",
        -8.045601957170636
      ],
      [
        "little",
        -8.053707094001153
      ],
      [
        "called",
        -8.056651087287966
      ],
      [
        "without",
        -8.057138356832647
      ],
      [
        "best",
        -8.064992804991679
      ],
      [
        "different",
        -8.065689372824195
      ],
      [
        "look",
        -8.071348613224076
      ],
      [
        "6",
        -8.077846742517666
      ],
      [
        "million",
        -8.082524655030177
      ],
      [
        "home",
        -8.082982676368289
      ],
      [
        "number",
        -8.087993795238312
      ],
      [
        "place",
        -8.101323115231684
      ],
      [
        "better",
        -8.10157290533576
      ],
      [
        "E",
        -8.102350890939373
      ],
      [
        "Obama",
        -8.103380003286942
      ],
      [
        "put",
        -8.107717207216348
      ],
      [
        "power",
        -8.118016578338967
      ],
      [
        "week",
        -8.120058115028296
      ],
      [
        "support",
        -8.12058575371681
      ],
      [
        "money",
        -8.121932446555505
      ],
      [
        "W",
        -8.126512171500458
      ],
      [
        "0",
        -8.12802981120431
      ],
      [
        "law",
        -8.131539272732923
      ],
      [
        "including",
        -8.133461546934111
      ],
      [
        "US",
        -8.144349658480103
      ],
      [
        "great",
        -8.152482728153284
      ],
      [
        "using",
        -8.156973030159637
      ],
      [
        "country",
        -8.15891132517331
      ],
      [
        "G",
        -8.16421928610797
      ],
      [
        "7",
        -8.168925016541158
      ],
      [
        "8",
        -8.172527435363088
      ],
      [
        "fact",
        -8.173072523236911
      ],
      [
        "thing",
        -8.174374002139675
      ],
      [
        "N",
        -8.194441493076654
      ],
      [
        "group",
        -8.196507156462154
      ],
      [
        "far",
        -8.201293239953989
      ],
      [
        "why",
        -8.20585588517034
      ],
      [
        "change",
        -8.20621989361682
      ],
      [
        "information",
        -8.211245904567608
      ],
      [
        "percent",
        -8.213735955877466
      ],
      [
        "based",
        -8.220366509653232
      ],
      [
        "men",
        -8.221020263506162
      ],
      [
        "data",
        -8.221208093361103
      ],
      [
        "left",
        -8.225205784643848
      ],
      [
        "free",
        -8.226459753736018
      ],
      [
        "play",
        -8.227299701240172
      ],
      [
        "top",
        -8.227853069047486
      ],
      [
        "com",
        -8.231815192456796
      ],
      [
        "didn",
        -8.233144426316994
      ],
      [
        "though",
        -8.255078773504243
      ],
      [
        "show",
        -8.255831713887668
      ],
      [
        "company",
        -8.258189595182829
      ],
      [
        "big",
        -8.261380014486747
      ],
      [
        "must",
        -8.262985875649594
      ],
      [
        "already",
        -8.26466150436425
      ],
      [
        "ever",
        -8.26711170515222
      ],
      [
        "second",
        -8.269807647820484
      ],
      [
        "women",
        -8.272888875247062
      ],
      [
        "always",
        -8.273757178618267
      ],
      [
        "police",
        -8.276511644758186
      ],
      [
        "One",
        -8.283753630836904
      ],
      [
        "making",
        -8.283935346342817
      ],
      [
        "enough",
        -8.29391772980249
      ],
      [
        "least",
        -8.301982740708688
      ],
      [
        "20",
        -8.303446210579791
      ],
      [
        "x",
        -8.312015881863717
      ],
      [
        "9",
        -8.31359434035208
      ],
      [
        "real",
        -8.3151932572496
      ],
      [
        "line",
        -8.315882716245392
      ],
      [
        "run",
        -8.31940019083652
      ],
      [
        "No",
        -8.321109859121613
      ],
      [
        "again",
        -8.323992411043498
      ],
      [
        "doesn",
        -8.32519811203141
      ],
      [
        "United",
        -8.329167722390887
      ],
      [
        "F",
        -8.33589134418031
      ],
      [
        "give",
        -8.344274969180216
      ],
      [
        "On",
        -8.344306282517495
      ],
      [
        "actually",
        -8.34454532020185
      ],
      [
        "side",
        -8.349956210760062
      ],
      [
        "She",
        -8.350048638934227
      ],
      [
        "per",
        -8.359859949097336
      ],
      [
        "water",
        -8.364141091703342
      ],
      [
        "today",
        -8.367724966617988
      ],
      [
        "war",
        -8.367882965227633
      ],
      [
        "political",
        -8.370204894407427
      ],
      [
        "away",
        -8.372332144801325
      ],
      [
        "become",
        -8.37568080040633
      ],
      [
        "important",
        -8.383047515004629
      ],
      [
        "past",
        -8.384631257235156
      ],
      [
        "K",
        -8.389921191840894
      ],
      [
        "hard",
        -8.394154256015234
      ],
      [
        "came",
        -8.395948534471882
      ],
      [
        "until",
        -8.397470465191867
      ],
      [
        "working",
        -8.397749709517708
      ],
      [
        "course",
        -8.398550700092333
      ],
      [
        "keep",
        -8.398742484958609
      ],
      [
        "small",
        -8.399523261148339
      ],
      [
        "report",
        -8.40856133935532
      ],
      [
        "story",
        -8.408741572507765
      ],
      [
        "season",
        -8.413516863762265
      ],
      [
        "often",
        -8.414757350999352
      ],
      [
        "later",
        -8.419692017331926
      ],
      [
        "example",
        -8.425518055924528
      ],
      [
        "full",
        -8.426715380494175
      ],
      [
        "days",
        -8.43554283241546
      ],
      [
        "doing",
        -8.436242698207405
      ],
      [
        "start",
        -8.437452997334546
      ],
      [
        "12",
        -8.43790220771641
      ],
      [
        "children",
        -8.438477168067358
      ],
      [
        "11",
        -8.439754314113953
      ],
      [
        "problem",
        -8.444891594483847
      ],
      [
        "order",
        -8.445807704413205
      ],
      [
        "believe",
        -8.448252306526934
      ],
      [
        "human",
        -8.44864175753393
      ],
      [
        "family",
        -8.451806770568187
      ],
      [
        "whether",
        -8.455300851339263
      ],
      [
        "name",
        -8.46003611920882
      ],
      [
        "took",
        -8.464779564279963
      ],
      [
        "&",
        -8.465219588351232
      ],
      [
        "open",
        -8.465556954824596
      ],
      [
        "30",
        -8.470837187367596
      ],
      [
        "head",
        -8.471808052723608
      ],
      [
        "school",
        -8.478110520184243
      ],
      [
        "having",
        -8.480773168235816
      ],
      [
        "kind",
        -8.482191032119651
      ],
      [
        "four",
        -8.483993238705349
      ],
      [
        "J",
        -8.493769669643536
      ],
      [
        "issue",
        -8.49648802333258
      ],
      [
        "person",
        -8.49651710360769
      ],
      [
        "level",
        -8.49681045489968
      ],
      [
        "business",
        -8.49761571444415
      ],
      [
        "book",
        -8.501228892514693
      ],
      [
        "city",
        -8.519197089280704
      ],
      [
        "likely",
        -8.52013376567684
      ],
      [
        "sure",
        -8.521206494496186
      ],
      [
        "media",
        -8.52131060134425
      ],
      [
        "possible",
        -8.521825634780035
      ],
      [
        "=",
        -8.523409891051765
      ],
      [
        "America",
        -8.52401139158415
      ],
      [
        "once",
        -8.526864546048815
      ],
      [
        "control",
        -8.528919730411829
      ],
      [
        "went",
        -8.529416613211291
      ],
      [
        "several",
        -8.53542295055324
      ],
      [
        "feel",
        -8.536892229449965
      ],
      [
        "thought",
        -8.53863657590665
      ],
      [
        "video",
        -8.544309230799685
      ],
      [
        "bit",
        -8.544755424943991
      ],
      [
        "early",
        -8.546217535192575
      ],
      [
        "five",
        -8.549209521196687
      ],
      [
        "future",
        -8.55131899004572
      ],
      [
        "health",
        -8.551372646072076
      ],
      [
        "15",
        -8.552806869289359
      ],
      [
        "large",
        -8.553875463305829
      ],
      [
        "means",
        -8.555165908351354
      ],
      [
        "After",
        -8.555299621447887
      ],
      [
        "process",
        -8.555309806307877
      ],
      [
        "idea",
        -8.557437483991817
      ],
      [
        "according",
        -8.559798001022083
      ],
      [
        "ago",
        -8.562695266734904
      ],
      [
        "All",
        -8.567623257899013
      ],
      [
        "2012",
        -8.56963216237173
      ],
      [
        "known",
        -8.572571787974116
      ],
      [
        "President",
        -8.579100448084988
      ],
      [
        "pay",
        -8.581922721231088
      ],
      [
        "market",
        -8.584277784268895
      ],
      [
        "read",
        -8.587319792269266
      ],
      [
        "post",
        -8.594489292327792
      ],
      [
        "done",
        -8.594605830270297
      ],
      [
        "getting",
        -8.594781629165583
      ],
      [
        "States",
        -8.596280904148685
      ],
      [
        "live",
        -8.598848998693446
      ],
      [
        "month",
        -8.599307261489145
      ],
      [
        "call",
        -8.59972217935406
      ],
      [
        "With",
        -8.60315786302073
      ],
      [
        "night",
        -8.60563426700972
      ],
      [
        "military",
        -8.608266374661865
      ],
      [
        "social",
        -8.610678875762638
      ],
      [
        "question",
        -8.610730717905874
      ],
      [
        "former",
        -8.61165903877336
      ],
      [
        "games",
        -8.612241497542891
      ],
      [
        "given",
        -8.61269948499939
      ],
      [
        "University",
        -8.613456342055233
      ],
      [
        "However",
        -8.618877664438811
      ],
      [
        "available",
        -8.620738244119146
      ],
      [
        "_",
        -8.620795634111111
      ],
      [
        "almost",
        -8.623593443094618
      ],
      [
        "asked",
        -8.625051288849866
      ],
      [
        "deal",
        -8.62649057372782
      ],
      [
        "local",
        -8.62751603402778
      ],
      [
        "While",
        -8.627537856231681
      ],
      [
        "Now",
        -8.632648368015026
      ],
      [
        "care",
        -8.633855643387752
      ],
      [
        "months",
        -8.633911841237664
      ],
      [
        "job",
        -8.636306312552495
      ],
      [
        "love",
        -8.65056607544217
      ],
      [
        "looking",
        -8.650960961190435
      ],
      [
        "anything",
        -8.652225311488685
      ],
      [
        "rather",
        -8.658198751746164
      ],
      [
        "trying",
        -8.661733830649816
      ],
      [
        "2011",
        -8.662989814600378
      ],
      [
        "among",
        -8.667428860765007
      ],
      [
        "House",
        -8.66970896049022
      ],
      [
        "York",
        -8.670178923039819
      ],
      [
        "experience",
        -8.675037514819152
      ],
      [
        "security",
        -8.675864230033927
      ],
      [
        "study",
        -8.675973363987227
      ],
      [
        "face",
        -8.67612055888524
      ],
      [
        "list",
        -8.67663929966247
      ],
      [
        "half",
        -8.678406365690272
      ],
      [
        "president",
        -8.679888802172051
      ],
      [
        "site",
        -8.682463570569595
      ],
      [
        "recent",
        -8.68365300128863
      ],
      [
        "across",
        -8.684821128644147
      ],
      [
        "community",
        -8.686306725792155
      ],
      [
        "times",
        -8.68719193059608
      ],
      [
        "light",
        -8.693095282850457
      ],
      [
        "history",
        -8.69345006130119
      ],
      [
        "clear",
        -8.6939945039631
      ],
      [
        "These",
        -8.694157967042907
      ],
      [
        "John",
        -8.695560197900864
      ],
      [
        "current",
        -8.696739411685748
      ],
      [
        "nothing",
        -8.697822793071333
      ],
      [
        "program",
        -8.701888695173897
      ],
      [
        "probably",
        -8.70243785449474
      ],
      [
        "party",
        -8.704356423063446
      ],
      [
        "move",
        -8.706919242468572
      ],
      [
        "reason",
        -8.708648930545891
      ],
      [
        "car",
        -8.709963195251884
      ],
      [
        "major",
        -8.710373444637689
      ],
      [
        "food",
        -8.710412062758094
      ],
      [
        "started",
        -8.71213971467069
      ],
      [
        "low",
        -8.714282619503683
      ],
      [
        "makes",
        -8.71629942903592
      ],
      [
        "members",
        -8.71711501753248
      ],
      [
        "together",
        -8.718215562695308
      ],
      [
        "How",
        -8.718666211291382
      ],
      [
        "class",
        -8.72091633568585
      ],
      [
        "players",
        -8.722484255843433
      ],
      [
        "try",
        -8.724854070586801
      ],
      [
        "100",
        -8.725838116017965
      ],
      [
        "2010",
        -8.732414285929226
      ],
      [
        "plan",
        -8.73329652812499
      ],
      [
        "research",
        -8.734789648277404
      ],
      [
        "court",
        -8.736643521412331
      ],
      [
        "taking",
        -8.74341992062056
      ],
      [
        "turn",
        -8.74680004821296
      ],
      [
        "comes",
        -8.747275256477879
      ],
      [
        "news",
        -8.747288481616291
      ],
      [
        "single",
        -8.747898793175198
      ],
      [
        "campaign",
        -8.751625760877923
      ],
      [
        "Google",
        -8.753286715418833
      ],
      [
        "body",
        -8.754401674108289
      ],
      [
        "saying",
        -8.754785759184067
      ],
      [
        "Some",
        -8.75771825240453
      ],
      [
        "someone",
        -8.759417258275036
      ],
      [
        "action",
        -8.761227930731621
      ],
      [
        "policy",
        -8.76555613177689
      ],
      [
        "age",
        -8.765609696305496
      ],
      [
        "taken",
        -8.76723340539678
      ],
      [
        "tax",
        -8.767852193673198
      ],
      [
        "matter",
        -8.768921679699401
      ],
      [
        "bad",
        -8.769915163921103
      ],
      [
        "50",
        -8.771664134809628
      ],
      [
        "tell",
        -8.775323673174316
      ],
      [
        "My",
        -8.776284025257613
      ],
      [
        "following",
        -8.77885630585051
      ],
      [
        "close",
        -8.778957870389734
      ],
      [
        "space",
        -8.779755737801475
      ],
      [
        "cost",
        -8.77998246186469
      ],
      [
        "seems",
        -8.780557603401851
      ],
      [
        "either",
        -8.781174269320838
      ],
      [
        "result",
        -8.78387898512621
      ],
      [
        "behind",
        -8.784009616651382
      ],
      [
        "#",
        -8.785797741247459
      ],
      [
        "added",
        -8.786572709445988
      ],
      [
        "simply",
        -8.787182823733533
      ],
      [
        "State",
        -8.787586186616524
      ],
      [
        "code",
        -8.788194888386084
      ],
      [
        "young",
        -8.790693880805934
      ],
      [
        "whole",
        -8.79083232120844
      ],
      [
        "By",
        -8.791023205509193
      ],
      [
        "energy",
        -8.797884981783719
      ],
      [
        "create",
        -8.800649181224754
      ],
      [
        "service",
        -8.80175034248576
      ],
      [
        "project",
        -8.804701862429184
      ],
      [
        "economic",
        -8.807062117258761
      ],
      [
        "version",
        -8.807307620797923
      ],
      [
        "however",
        -8.810513656186187
      ],
      [
        "series",
        -8.810659036013067
      ],
      [
        "death",
        -8.811115400613652
      ],
      [
        "house",
        -8.811163521883257
      ],
      [
        "mean",
        -8.814595727171389
      ],
      [
        "term",
        -8.82204730775741
      ],
      [
        "companies",
        -8.823073449589334
      ],
      [
        "provide",
        -8.824382965789722
      ],
      [
        "others",
        -8.824882868725412
      ],
      [
        "wanted",
        -8.82521694634657
      ],
      [
        "national",
        -8.829827885294637
      ],
      [
        "itself",
        -8.831417443169748
      ],
      [
        "along",
        -8.831478932270816
      ],
      [
        "third",
        -8.83168485594841
      ],
      [
        "evidence",
        -8.831795507363527
      ],
      [
        "led",
        -8.833515512443254
      ],
      [
        "federal",
        -8.835968730631324
      ],
      [
        "sense",
        -8.83706842526366
      ],
      [
        "short",
        -8.842172667050145
      ],
      [
        "themselves",
        -8.843013250773522
      ],
      [
        "true",
        -8.849118887073239
      ],
      [
        "above",
        -8.854059744942123
      ],
      [
        "decision",
        -8.855667966739212
      ],
      [
        "coming",
        -8.856091048110903
      ],
      [
        "everything",
        -8.857874899888722
      ],
      [
        "further",
        -8.858490732316037
      ],
      [
        "National",
        -8.86120238695572
      ],
      [
        "similar",
        -8.862782192844561
      ],
      [
        "Advertisement",
        -8.863162320610671
      ],
      [
        "article",
        -8.869469415414175
      ],
      [
        "quite",
        -8.86993485418337
      ],
      [
        "billion",
        -8.872931078741532
      ],
      [
        "self",
        -8.877381875435226
      ],
      [
        "key",
        -8.88189528005312
      ],
      [
        "six",
        -8.884280667484173
      ],
      [
        "view",
        -8.884873791581224
      ],
      [
        "reported",
        -8.886606112042946
      ],
      [
        "rights",
        -8.887165338129297
      ],
      [
        "attack",
        -8.889481146619573
      ],
      [
        "*",
        -8.892750685780305
      ],
      [
        "Washington",
        -8.893019523899072
      ],
      [
        "His",
        -8.893364249213903
      ],
      [
        "player",
        -8.893794672914856
      ],
      [
        "continue",
        -8.895367643143189
      ],
      [
        "online",
        -8.895666232515548
      ],
      [
        "?\"",
        -8.89727615070714
      ],
      [
        "value",
        -8.898539296519123
      ],
      [
        "Israel",
        -8.900254562233
      ],
      [
        "World",
        -8.900423349177245
      ],
      [
        "z",
        -8.900726248014838
      ],
      [
        "pretty",
        -8.902990443088566
      ],
      [
        "page",
        -8.90370403958387
      ],
      [
        "hours",
        -8.904451473809313
      ],
      [
        "wrote",
        -8.904860596463191
      ],
      [
        "form",
        -8.904948408871853
      ],
      [
        "13",
        -8.906041509088558
      ],
      [
        "25",
        -8.909371870257463
      ],
      [
        "industry",
        -8.910294486007444
      ],
      [
        "rate",
        -8.910413136162367
      ],
      [
        "understand",
        -8.912400142630538
      ],
      [
        "2013",
        -8.913169527797534
      ],
      [
        "mind",
        -8.914097637534764
      ],
      [
        "Here",
        -8.920284691298887
      ],
      [
        "running",
        -8.922016572064866
      ],
      [
        "general",
        -8.922932961303973
      ],
      [
        "officials",
        -8.923004333265602
      ],
      [
        "front",
        -8.923100701233881
      ],
      [
        "field",
        -8.92336532117337
      ],
      [
        "outside",
        -8.923528084390759
      ],
      [
        "everyone",
        -8.923727907625207
      ],
      [
        "16",
        -8.924028317393118
      ],
      [
        "+",
        -8.92540329783051
      ],
      [
        "talk",
        -8.928190140291058
      ],
      [
        "development",
        -8.928606916339618
      ],
      [
        "cut",
        -8.930047577312981
      ],
      [
        "anti",
        -8.930932289269073
      ],
      [
        "source",
        -8.93119457603178
      ],
      [
        "access",
        -8.93198125133633
      ],
      [
        "stop",
        -8.932133375922003
      ],
      [
        "else",
        -8.932291627290848
      ],
      [
        "issues",
        -8.93241252574241
      ],
      [
        "film",
        -8.932966418331837
      ],
      [
        "God",
        -8.93620977352304
      ],
      [
        "financial",
        -8.941563418756816
      ],
      [
        "room",
        -8.942842121052161
      ],
      [
        "release",
        -8.943065764523315
      ],
      [
        "lead",
        -8.945062912765243
      ],
      [
        "black",
        -8.947025554116964
      ],
      [
        "office",
        -8.94996736114625
      ],
      [
        "role",
        -8.950139653889341
      ],
      [
        "especially",
        -8.95112575178596
      ],
      [
        "type",
        -8.951743995438761
      ],
      [
        "2008",
        -8.951919760762483
      ],
      [
        "More",
        -8.952988416335057
      ],
      [
        "building",
        -8.953465740826278
      ],
      [
        "within",
        -8.954026906496622
      ],
      [
        "began",
        -8.954887854595748
      ],
      [
        "14",
        -8.955313213295922
      ],
      [
        "statement",
        -8.956003850856064
      ],
      [
        "countries",
        -8.958283490800785
      ],
      [
        "China",
        -8.960428563817123
      ],
      [
        "woman",
        -8.962606412782767
      ],
      [
        "Even",
        -8.96622171345348
      ],
      [
        "return",
        -8.967685949156198
      ],
      [
        "himself",
        -8.969073017541449
      ],
      [
        "2009",
        -8.969183996319982
      ],
      [
        "include",
        -8.97517884490801
      ],
      [
        "instead",
        -8.9756454226178
      ],
      [
        "late",
        -8.97631309445657
      ],
      [
        "students",
        -8.97636967158848
      ],
      [
        "interest",
        -8.979055265567691
      ],
      [
        "final",
        -8.985432015522417
      ],
      [
        "longer",
        -8.986350992930259
      ],
      [
        "phone",
        -8.98720323466704
      ],
      [
        "below",
        -8.988115737257127
      ],
      [
        "bill",
        -8.988253244991494
      ],
      [
        "record",
        -8.98865847859946
      ],
      [
        "words",
        -8.991062306006823
      ],
      [
        "lost",
        -8.991198474626186
      ],
      [
        "recently",
        -8.991375683096129
      ],
      [
        "anyone",
        -8.99335183523498
      ],
      [
        "Republican",
        -8.993432745947187
      ],
      [
        "force",
        -8.993625874884678
      ],
      [
        "ability",
        -8.994923996708765
      ],
      [
        "position",
        -8.998773217451408
      ],
      [
        "May",
        -9.006132164592259
      ],
      [
        "easy",
        -9.00664028293451
      ],
      [
        "problems",
        -9.006671704509563
      ],
      [
        "workers",
        -9.010427185398598
      ],
      [
        "risk",
        -9.01114676622868
      ],
      [
        "hope",
        -9.01138175905528
      ],
      [
        "released",
        -9.012660627308003
      ],
      [
        "near",
        -9.01376260140141
      ],
      [
        "points",
        -9.014589769458503
      ],
      [
        "test",
        -9.014780723056953
      ],
      [
        "18",
        -9.016253266345926
      ],
      [
        "private",
        -9.017558053554268
      ],
      [
        "content",
        -9.018450818371562
      ],
      [
        "economy",
        -9.019616649765904
      ],
      [
        "Paul",
        -9.019861105322926
      ],
      [
        "wrong",
        -9.020322100449977
      ],
      [
        "higher",
        -9.021628034066543
      ],
      [
        "groups",
        -9.026764234487604
      ],
      [
        "users",
        -9.028408116434775
      ],
      [
        "Americans",
        -9.030461128198526
      ],
      [
        "Not",
        -9.030712960010455
      ],
      [
        "legal",
        -9.03280981424461
      ],
      [
        "needed",
        -9.040059234542397
      ],
      [
        "TV",
        -9.040783042282616
      ],
      [
        "City",
        -9.042045621779915
      ],
      [
        "results",
        -9.046228725617627
      ],
      [
        "build",
        -9.048311910597786
      ],
      [
        "shows",
        -9.048375488513372
      ],
      [
        "price",
        -9.048687593704429
      ],
      [
        "held",
        -9.048921855256477
      ],
      [
        "cannot",
        -9.05304596250609
      ],
      [
        "became",
        -9.055959778134888
      ],
      [
        "white",
        -9.056098218363847
      ],
      [
        "@",
        -9.057251029157033
      ],
      [
        "share",
        -9.05851736772026
      ],
      [
        "official",
        -9.062733259808413
      ],
      [
        "amount",
        -9.063911799372505
      ],
      [
        "Facebook",
        -9.065010329044147
      ],
      [
        "image",
        -9.065931047766329
      ],
      [
        "allow",
        -9.0659794852708
      ],
      [
        "South",
        -9.066453108562404
      ],
      [
        "playing",
        -9.066466189116735
      ],
      [
        "certain",
        -9.066912073124277
      ],
      [
        "increase",
        -9.06755437639578
      ],
      [
        "rest",
        -9.068460178932668
      ],
      [
        "technology",
        -9.069795181383897
      ],
      [
        "friends",
        -9.07021397988792
      ],
      [
        "word",
        -9.070258096240575
      ],
      [
        "North",
        -9.070540989666043
      ],
      [
        "strong",
        -9.071455134259569
      ],
      [
        "created",
        -9.071850387439191
      ],
      [
        "needs",
        -9.072299409510446
      ],
      [
        "common",
        -9.072665453480045
      ],
      [
        "vote",
        -9.073147754785976
      ],
      [
        "bring",
        -9.073748838744342
      ],
      [
        "music",
        -9.075612265884395
      ],
      [
        "ask",
        -9.076386895175975
      ],
      [
        "40",
        -9.079841789319335
      ],
      [
        "simple",
        -9.080763750369833
      ],
      [
        "states",
        -9.081403204500356
      ],
      [
        "Congress",
        -9.085726447932492
      ],
      [
        "fire",
        -9.086889734008478
      ],
      [
        "child",
        -9.087562577109255
      ],
      [
        "design",
        -9.08782561294975
      ],
      [
        "global",
        -9.08895044320311
      ],
      [
        "science",
        -9.090192194668722
      ],
      [
        "election",
        -9.09047067598149
      ],
      [
        "fight",
        -9.094317063833971
      ],
      [
        "entire",
        -9.09490850957508
      ],
      [
        "minutes",
        -9.09812278602485
      ],
      [
        "website",
        -9.098789902199616
      ],
      [
        "personal",
        -9.100081978145889
      ],
      [
        "effect",
        -9.100482702361138
      ],
      [
        "seem",
        -9.102304430471438
      ],
      [
        "17",
        -9.103445412566966
      ],
      [
        "main",
        -9.104362238734232
      ],
      [
        "living",
        -9.106587812221228
      ],
      [
        "involved",
        -9.10759230280757
      ],
      [
        "sex",
        -9.109217502784237
      ],
      [
        "X",
        -9.110263333415482
      ],
      [
        "forward",
        -9.110278378963532
      ],
      [
        "According",
        -9.110380136500567
      ],
      [
        "Y",
        -9.111341343705826
      ],
      [
        "special",
        -9.11208918256679
      ],
      [
        "Department",
        -9.113021779719732
      ],
      [
        "://",
        -9.115179366492839
      ],
      [
        "published",
        -9.117485215679224
      ],
      [
        "add",
        -9.118850635766961
      ],
      [
        "response",
        -9.119342521090958
      ],
      [
        "played",
        -9.120129070484337
      ],
      [
        "average",
        -9.1208314653882
      ],
      [
        "White",
        -9.122366265052033
      ],
      [
        "potential",
        -9.122570458622421
      ],
      [
        "goes",
        -9.124489445240199
      ],
      [
        "weeks",
        -9.128016370742605
      ],
      [
        "j",
        -9.128944361154119
      ],
      [
        "board",
        -9.130464423785872
      ],
      [
        "earlier",
        -9.130466940676824
      ],
      [
        "killed",
        -9.130595076971387
      ],
      [
        "David",
        -9.132048879829389
      ],
      [
        "expected",
        -9.133221953780328
      ],
      [
        "size",
        -9.134963247091
      ],
      [
        "cause",
        -9.1352563577541
      ],
      [
        "total",
        -9.138864530842087
      ],
      [
        "nearly",
        -9.139962759015516
      ],
      [
        "turned",
        -9.14001518357794
      ],
      [
        "changes",
        -9.140135016570254
      ],
      [
        "difficult",
        -9.1433355450966
      ],
      [
        "leave",
        -9.143369231178
      ],
      [
        "international",
        -9.14447034337586
      ],
      [
        "Why",
        -9.146015882403105
      ],
      [
        "questions",
        -9.147157185403469
      ],
      [
        "whose",
        -9.1515130941305
      ],
      [
        "account",
        -9.154105717032559
      ],
      [
        "situation",
        -9.156209081056987
      ],
      [
        "step",
        -9.156244474250693
      ],
      [
        "lower",
        -9.157403749619846
      ],
      [
        "original",
        -9.158994144071766
      ],
      [
        "buy",
        -9.159859695237934
      ],
      [
        "couple",
        -9.161484780393854
      ],
      [
        "V",
        -9.164245970709317
      ],
      [
        "services",
        -9.166167332725129
      ],
      [
        "Twitter",
        -9.166495712193953
      ],
      [
        "24",
        -9.168115666091957
      ],
      [
        "movement",
        -9.17167075841719
      ],
      [
        "nation",
        -9.172566538905343
      ],
      [
        "moment",
        -9.173409137584372
      ],
      [
        "model",
        -9.173761170236677
      ],
      [
        "shot",
        -9.174582002994065
      ],
      [
        "inside",
        -9.176834590178288
      ],
      [
        "News",
        -9.17712957461146
      ],
      [
        "via",
        -9.178725978063035
      ],
      [
        "ground",
        -9.180181976000728
      ],
      [
        "offer",
        -9.180787785430654
      ],
      [
        "language",
        -9.182655621930158
      ],
      [
        "fully",
        -9.185585103733771
      ],
      [
        "paper",
        -9.185839420635254
      ],
      [
        "director",
        -9.186031950486846
      ],
      [
        "gun",
        -9.186199482773555
      ],
      [
        "ally",
        -9.188933640724452
      ],
      [
        "worked",
        -9.192184822908443
      ],
      [
        "Apple",
        -9.192819409270271
      ],
      [
        "worth",
        -9.194388080615616
      ],
      [
        "Our",
        -9.196067010332635
      ],
      [
        "hold",
        -9.196151572958051
      ],
      [
        "file",
        -9.198102955520211
      ],
      [
        "California",
        -9.199220782004526
      ],
      [
        "terms",
        -9.203435769799064
      ],
      [
        "received",
        -9.203840914391948
      ],
      [
        "happen",
        -9.208201995504197
      ],
      [
        "gave",
        -9.209675894792612
      ],
      [
        "chance",
        -9.211045366934629
      ],
      [
        "win",
        -9.213480979928978
      ],
      [
        "happened",
        -9.21372920327739
      ],
      [
        "member",
        -9.214903478310111
      ],
      [
        "reports",
        -9.21678734127426
      ],
      [
        "huge",
        -9.217255624033212
      ],
      [
        "production",
        -9.21918686569468
      ],
      [
        "From",
        -9.220137301874546
      ],
      [
        "decided",
        -9.22078208503823
      ],
      [
        "March",
        -9.221504716156756
      ],
      [
        "computer",
        -9.221548953094551
      ],
      [
        "heard",
        -9.222001147659356
      ],
      [
        "http",
        -9.222439444294318
      ],
      [
        "Friday",
        -9.225578319076654
      ],
      [
        "range",
        -9.227044034320848
      ],
      [
        "particular",
        -9.227540076250698
      ],
      [
        "performance",
        -9.231884153149396
      ],
      [
        "cases",
        -9.232918834262449
      ],
      [
        "pre",
        -9.234126904010488
      ],
      [
        "First",
        -9.23581602346189
      ],
      [
        "administration",
        -9.23597149578571
      ],
      [
        "popular",
        -9.237625709167057
      ],
      [
        "goal",
        -9.238045109957326
      ],
      [
        "growth",
        -9.239272413685862
      ],
      [
        "Romney",
        -9.240157037361062
      ],
      [
        "attention",
        -9.240233429945578
      ],
      [
        "War",
        -9.241298367981749
      ],
      [
        "period",
        -9.243242724444217
      ],
      [
        "lives",
        -9.243364280408223
      ],
      [
        "June",
        -9.243539679968107
      ],
      [
        "Bush",
        -9.244881754073237
      ],
      [
        "quickly",
        -9.246883647337729
      ],
      [
        "population",
        -9.248912873070239
      ],
      [
        "written",
        -9.249016115673207
      ],
      [
        "check",
        -9.249810099394104
      ],
      [
        "West",
        -9.251266038928483
      ],
      [
        "allowed",
        -9.253550579869957
      ],
      [
        "sent",
        -9.25379677141853
      ],
      [
        "spent",
        -9.25452886932885
      ],
      [
        "software",
        -9.255001466392322
      ],
      [
        "built",
        -9.256056283602698
      ],
      [
        "currently",
        -9.25731760760143
      ],
      [
        "ways",
        -9.257679731714159
      ],
      [
        "write",
        -9.259184030583707
      ],
      [
        "present",
        -9.259791587478619
      ],
      [
        "answer",
        -9.26338640239374
      ],
      [
        "race",
        -9.264235426320163
      ],
      [
        "drug",
        -9.26439429913092
      ],
      [
        "writing",
        -9.265191538584032
      ],
      [
        "tried",
        -9.265266406560743
      ],
      [
        "announced",
        -9.26557136495159
      ],
      [
        "fans",
        -9.267595203065643
      ],
      [
        "talking",
        -9.267714369530072
      ],
      [
        "Monday",
        -9.267818451699632
      ],
      [
        "character",
        -9.267985738754476
      ],
      [
        "takes",
        -9.268968894166253
      ],
      [
        "specific",
        -9.27110010549652
      ],
      [
        "Street",
        -9.271132007031907
      ],
      [
        "Well",
        -9.271520854181462
      ],
      [
        "significant",
        -9.272320832059874
      ],
      [
        "individual",
        -9.272972330339247
      ],
      [
        "network",
        -9.27477946511789
      ],
      [
        "upon",
        -9.278326307839851
      ],
      [
        "July",
        -9.278829727768946
      ],
      [
        "act",
        -9.27984518428595
      ],
      [
        "press",
        -9.282346930702502
      ],
      [
        "British",
        -9.282880285502454
      ],
      [
        "learn",
        -9.283353869590862
      ],
      [
        "Just",
        -9.283721906319895
      ],
      [
        "society",
        -9.28597445256746
      ],
      [
        "debt",
        -9.28685522233176
      ],
      [
        "sort",
        -9.287564762293897
      ],
      [
        "European",
        -9.28840001821628
      ],
      [
        "Internet",
        -9.28861176208367
      ],
      [
        "quality",
        -9.289838082597429
      ],
      [
        "user",
        -9.290065069273021
      ],
      [
        "works",
        -9.290143681897899
      ],
      [
        "knew",
        -9.291807664293808
      ],
      [
        "foreign",
        -9.294914188696879
      ],
      [
        "base",
        -9.296619235399492
      ],
      [
        "serious",
        -9.2966780462012
      ],
      [
        "interview",
        -9.297079325452241
      ],
      [
        "interesting",
        -9.29807757851958
      ],
      [
        "medical",
        -9.299270399442122
      ],
      [
        "natural",
        -9.300033504686573
      ],
      [
        "trade",
        -9.301197335502799
      ],
      [
        "paid",
        -9.301282303962864
      ],
      [
        "Tuesday",
        -9.301489634463831
      ],
      [
        "Most",
        -9.302260656985267
      ],
      [
        "hear",
        -9.302848772747112
      ],
      [
        "latest",
        -9.304385056287856
      ],
      [
        "event",
        -9.305316916507207
      ],
      [
        "search",
        -9.307095727352717
      ],
      [
        "credit",
        -9.308447127797733
      ],
      [
        "felt",
        -9.309209764766663
      ],
      [
        "friend",
        -9.309475878210819
      ],
      [
        "completely",
        -9.309839052249785
      ],
      [
        "message",
        -9.309972433986626
      ],
      [
        "guy",
        -9.310819203738928
      ],
      [
        "April",
        -9.310915934715318
      ],
      [
        "various",
        -9.312457068176204
      ],
      [
        "spending",
        -9.312922507512686
      ],
      [
        "morning",
        -9.313311426601835
      ],
      [
        "plans",
        -9.313661411427633
      ],
      [
        "function",
        -9.317857699896688
      ],
      [
        "heart",
        -9.31881599119797
      ],
      [
        "meeting",
        -9.320365524385261
      ],
      [
        "19",
        -9.321411374907584
      ],
      [
        "UK",
        -9.321967598583782
      ],
      [
        "perhaps",
        -9.322022570939536
      ],
      [
        "Court",
        -9.322978871585203
      ],
      [
        "impact",
        -9.323067651800512
      ],
      [
        "Center",
        -9.323574383119869
      ],
      [
        "related",
        -9.324976743821875
      ],
      [
        "product",
        -9.326402144175088
      ],
      [
        "follow",
        -9.326594232938081
      ],
      [
        "21",
        -9.328757934078258
      ],
      [
        "Let",
        -9.328948417125181
      ],
      [
        "piece",
        -9.331868042440705
      ],
      [
        "exactly",
        -9.332707584925746
      ],
      [
        "2007",
        -9.333521577438955
      ],
      [
        "effort",
        -9.333926678874771
      ],
      [
        "movie",
        -9.33528601149915
      ],
      [
        "brought",
        -9.335441569407237
      ],
      [
        "San",
        -9.335695568882317
      ],
      [
        "jobs",
        -9.338454876192708
      ],
      [
        "numbers",
        -9.339421883614087
      ],
      [
        "areas",
        -9.340258231466333
      ],
      [
        "certainly",
        -9.340923486772294
      ],
      [
        "brain",
        -9.344657445351363
      ],
      [
        "22",
        -9.34558958655125
      ],
      [
        "September",
        -9.347241405351724
      ],
      [
        "Republicans",
        -9.348475225693752
      ],
      [
        "budget",
        -9.348874336274024
      ],
      [
        "watch",
        -9.349840310572585
      ],
      [
        "events",
        -9.350448180489174
      ],
      [
        "Iran",
        -9.350463510451261
      ],
      [
        "lack",
        -9.351264989567078
      ],
      [
        "complete",
        -9.352042283939594
      ],
      [
        "claim",
        -9.352072504495432
      ],
      [
        "www",
        -9.352678514214913
      ],
      [
        "nuclear",
        -9.353885343301464
      ],
      [
        "Many",
        -9.354173562559886
      ],
      [
        "poor",
        -9.355569139614724
      ],
      [
        "thinking",
        -9.355737994038144
      ],
      [
        "60",
        -9.356968173413543
      ],
      [
        "approach",
        -9.360858925703587
      ],
      [
        "parents",
        -9.36139572138175
      ],
      [
        "father",
        -9.363750539975223
      ],
      [
        "forces",
        -9.364612012576043
      ],
      [
        ">",
        -9.365014389635947
      ],
      [
        "Senate",
        -9.367118413932891
      ],
      [
        "hands",
        -9.367305520338125
      ],
      [
        "sign",
        -9.367782146942366
      ],
      [
        "choice",
        -9.368009631929556
      ],
      [
        "focus",
        -9.368265202195552
      ],
      [
        "middle",
        -9.36901575163517
      ],
      [
        "defense",
        -9.369645370167573
      ],
      [
        "although",
        -9.371288258328839
      ],
      [
        "staff",
        -9.372882175993775
      ],
      [
        "addition",
        -9.373109259550265
      ],
      [
        "cover",
        -9.37527653726395
      ],
      [
        "growing",
        -9.37541546287475
      ],
      [
        "People",
        -9.375555945846196
      ],
      [
        "address",
        -9.377165629386997
      ],
      [
        "Sunday",
        -9.377298704199076
      ],
      [
        "break",
        -9.377357540180347
      ],
      [
        "expect",
        -9.377630036271498
      ],
      [
        "Wednesday",
        -9.378438393453518
      ],
      [
        "violence",
        -9.379415332728387
      ],
      [
        "drive",
        -9.379420910121851
      ],
      [
        "web",
        -9.379619499946484
      ],
      [
        "Since",
        -9.379717368775907
      ],
      [
        "features",
        -9.379760662254212
      ],
      [
        "claims",
        -9.381612867775141
      ],
      [
        "debate",
        -9.38311272042104
      ],
      [
        "London",
        -9.385153239190615
      ],
      [
        "mother",
        -9.386864311111731
      ],
      [
        "education",
        -9.388185272428078
      ],
      [
        "particularly",
        -9.388209843669246
      ],
      [
        "stuff",
        -9.389483117068048
      ],
      [
        "Thursday",
        -9.389944434477297
      ],
      [
        "previous",
        -9.390794976169232
      ],
      [
        "Europe",
        -9.3910820311435
      ],
      [
        "ness",
        -9.392199369471918
      ],
      [
        "giving",
        -9.392292232607282
      ],
      [
        "500",
        -9.394310855197041
      ],
      [
        "usually",
        -9.39528842891305
      ],
      [
        "rules",
        -9.396841679425629
      ],
      [
        "stay",
        -9.398053370814825
      ],
      [
        "Party",
        -9.402529749467126
      ],
      [
        "app",
        -9.402745250039008
      ],
      [
        "practice",
        -9.402941594860382
      ],
      [
        "style",
        -9.403587173585798
      ],
      [
        "training",
        -9.403614545976753
      ],
      [
        "email",
        -9.404901598480132
      ],
      [
        "looks",
        -9.405145552937766
      ],
      [
        "levels",
        -9.406403566713363
      ],
      [
        "difference",
        -9.408897411632983
      ],
      [
        "considered",
        -9.409474123512046
      ],
      [
        "Times",
        -9.409914329967004
      ],
      [
        "consider",
        -9.410603874516845
      ],
      [
        "speed",
        -9.4108269517151
      ],
      [
        "sometimes",
        -9.410849627204412
      ],
      [
        "reading",
        -9.411595701739719
      ],
      [
        "screen",
        -9.411843917285216
      ],
      [
        "remember",
        -9.412362919506345
      ],
      [
        "crisis",
        -9.412671971794778
      ],
      [
        "designed",
        -9.41284957061068
      ],
      [
        "Don",
        -9.413403275216252
      ],
      [
        "bank",
        -9.413823392865625
      ],
      [
        "climate",
        -9.414387623754761
      ],
      [
        "dead",
        -9.41447853133607
      ],
      [
        "pass",
        -9.415750680477792
      ],
      [
        "finally",
        -9.416257347625585
      ],
      [
        "January",
        -9.417125861436064
      ],
      [
        "included",
        -9.418355900904817
      ],
      [
        "products",
        -9.418686052929251
      ],
      [
        "Michael",
        -9.419000525286059
      ],
      [
        "standard",
        -9.419461981768658
      ],
      [
        "directly",
        -9.42171375504494
      ],
      [
        "leaders",
        -9.422359473771804
      ],
      [
        "income",
        -9.425039756189456
      ],
      [
        "Canada",
        -9.425199743621446
      ],
      [
        "Because",
        -9.425470634742819
      ],
      [
        "looked",
        -9.427281134304165
      ],
      [
        "sound",
        -9.427342922286165
      ],
      [
        "required",
        -9.427601708730544
      ],
      [
        "religious",
        -9.427718891255545
      ],
      [
        "thousands",
        -9.429576678356936
      ],
      [
        "success",
        -9.431917483766885
      ],
      [
        "career",
        -9.431988945112318
      ],
      [
        "Iraq",
        -9.432240498127989
      ],
      [
        "leader",
        -9.432864055957047
      ],
      [
        "majority",
        -9.434619866348285
      ],
      [
        "alone",
        -9.437524533189178
      ],
      [
        "November",
        -9.437889390099233
      ],
      [
        "costs",
        -9.438578169797914
      ],
      [
        "Earth",
        -9.43864656150686
      ],
      [
        "nature",
        -9.438760161259982
      ],
      [
        "Act",
        -9.439793901052113
      ],
      [
        "details",
        -9.440363721815082
      ],
      [
        "wide",
        -9.44109916102246
      ],
      [
        "store",
        -9.441825155306217
      ],
      [
        "despite",
        -9.44217756601648
      ],
      [
        "comments",
        -9.442625692540698
      ],
      [
        "pressure",
        -9.442887758262584
      ],
      [
        "culture",
        -9.444195757739545
      ],
      [
        "gone",
        -9.446550784080273
      ],
      [
        "author",
        -9.447525056871703
      ],
      [
        "avoid",
        -9.448097261971181
      ],
      [
        "device",
        -9.449018645453341
      ],
      [
        "kids",
        -9.449529809799127
      ],
      [
        "fun",
        -9.450495292887192
      ],
      [
        "figure",
        -9.451300522498007
      ],
      [
        "October",
        -9.45193641108322
      ],
      [
        "blog",
        -9.452089754700404
      ],
      [
        "chief",
        -9.452227626041159
      ],
      [
        "systems",
        -9.452538927760013
      ],
      [
        "laws",
        -9.453370927211376
      ],
      [
        "books",
        -9.455298097663206
      ],
      [
        "subject",
        -9.455311658262527
      ],
      [
        "leading",
        -9.456231841021527
      ],
      [
        "date",
        -9.457712446110024
      ],
      [
        "beyond",
        -9.458568664266993
      ],
      [
        "August",
        -9.461584282142733
      ],
      [
        "Last",
        -9.461866162628072
      ],
      [
        "described",
        -9.465174025761291
      ],
      [
        "23",
        -9.46955718495943
      ],
      [
        "weapons",
        -9.473240614673937
      ],
      [
        "letter",
        -9.475962187793025
      ],
      [
        "modern",
        -9.476321746127523
      ],
      [
        "Like",
        -9.477943702099196
      ],
      [
        "student",
        -9.48200782977895
      ],
      [
        "died",
        -9.482973423215846
      ],
      [
        "protect",
        -9.4840648065539
      ],
      [
        "showed",
        -9.484299530669654
      ],
      [
        "researchers",
        -9.48646721932719
      ],
      [
        "necessary",
        -9.487330020581929
      ],
      [
        "star",
        -9.487597595701049
      ],
      [
        "century",
        -9.487721717973974
      ],
      [
        "wife",
        -9.487767330945868
      ],
      [
        "text",
        -9.487864831203227
      ],
      [
        "relationship",
        -9.488582458329871
      ],
      [
        "changed",
        -9.489053342898599
      ],
      [
        "biggest",
        -9.489058438082399
      ],
      [
        "center",
        -9.491738333249058
      ],
      [
        "provided",
        -9.492001159102244
      ],
      [
        "Although",
        -9.49260188659101
      ],
      [
        "hour",
        -9.493876584781148
      ],
      [
        "gay",
        -9.494874367396378
      ],
      [
        "round",
        -9.495222002087305
      ],
      [
        "maybe",
        -9.496704015612
      ],
      [
        "remain",
        -9.496964921601535
      ],
      [
        "ready",
        -9.497066563829458
      ],
      [
        "attacks",
        -9.497067770351977
      ],
      [
        "passed",
        -9.497731725271716
      ],
      [
        "meet",
        -9.497874479641606
      ],
      [
        "reality",
        -9.498128186495777
      ],
      [
        "George",
        -9.498600418202583
      ],
      [
        "toward",
        -9.500223177092883
      ],
      [
        "material",
        -9.500356431233905
      ],
      [
        "yourself",
        -9.502089638234173
      ],
      [
        "truth",
        -9.50591564232889
      ],
      [
        "pick",
        -9.505978715795674
      ],
      [
        "opportunity",
        -9.507370531863355
      ],
      [
        "calls",
        -9.508232712209145
      ],
      [
        "summer",
        -9.508690162647571
      ],
      [
        "myself",
        -9.511254549815549
      ],
      [
        "appear",
        -9.511960335933708
      ],
      [
        "card",
        -9.51247844980199
      ],
      [
        "save",
        -9.512918657190164
      ],
      [
        "!\"",
        -9.513091563043032
      ],
      [
        "wants",
        -9.515736758526195
      ],
      [
        "eight",
        -9.515866303087616
      ],
      [
        "agency",
        -9.51635775557232
      ],
      [
        "comment",
        -9.518336995549518
      ],
      [
        "happy",
        -9.518725719425676
      ],
      [
        "rise",
        -9.519265515770101
      ],
      [
        "remains",
        -9.521030025327228
      ],
      [
        "region",
        -9.523882656453566
      ],
      [
        "Texas",
        -9.523967480985425
      ],
      [
        "road",
        -9.5247762725498
      ],
      [
        "fast",
        -9.527175377838288
      ],
      [
        "appears",
        -9.529369918308806
      ],
      [
        "easily",
        -9.530035841414493
      ],
      [
        "East",
        -9.5303538570654
      ],
      [
        "stories",
        -9.53377713626496
      ],
      [
        "beginning",
        -9.535024468266373
      ],
      [
        "Windows",
        -9.53506941817061
      ],
      [
        "starting",
        -9.535258470032614
      ],
      [
        "failed",
        -9.536350662268285
      ],
      [
        "deep",
        -9.537311650243794
      ],
      [
        "investigation",
        -9.538078490128022
      ],
      [
        "attempt",
        -9.539320392997453
      ],
      [
        "powerful",
        -9.539927482776452
      ],
      [
        "effects",
        -9.540436107754696
      ],
      [
        "sexual",
        -9.542001657183755
      ],
      [
        "Israeli",
        -9.5424631283299
      ],
      [
        "link",
        -9.542982722454962
      ],
      [
        "property",
        -9.54331993555118
      ],
      [
        "December",
        -9.543480916182421
      ],
      [
        "loss",
        -9.54373960340355
      ],
      [
        "Saturday",
        -9.543953647480565
      ],
      [
        "Democrats",
        -9.545881946022403
      ],
      [
        "environment",
        -9.545932562156601
      ],
      [
        "damage",
        -9.54707470379311
      ],
      [
        "immediately",
        -9.547129201860763
      ],
      [
        "scientists",
        -9.547625946260455
      ],
      [
        "conference",
        -9.548983463131272
      ],
      [
        "Police",
        -9.548992034825961
      ],
      [
        "stage",
        -9.549234752169147
      ],
      [
        "moving",
        -9.549389952244631
      ],
      [
        "Microsoft",
        -9.549496502746509
      ],
      [
        "box",
        -9.54964425802215
      ],
      [
        "safety",
        -9.550650580116749
      ],
      [
        "track",
        -9.550897792537864
      ],
      [
        "fear",
        -9.551171309021695
      ],
      [
        "|",
        -9.55395093777199
      ],
      [
        "independent",
        -9.555124554380711
      ],
      [
        "efforts",
        -9.55609976400505
      ],
      [
        "scene",
        -9.556365706162323
      ],
      [
        "organization",
        -9.556940955011072
      ],
      [
        "analysis",
        -9.557238585144676
      ],
      [
        "blood",
        -9.55844922704797
      ],
      [
        "conditions",
        -9.559051972911375
      ],
      [
        "largest",
        -9.55976601852486
      ],
      [
        "clearly",
        -9.560350535243062
      ],
      [
        "door",
        -9.560676353803853
      ],
      [
        "favorite",
        -9.563572357035177
      ],
      [
        "review",
        -9.564226564471653
      ],
      [
        "James",
        -9.564424293168605
      ],
      [
        "begin",
        -9.564969642521342
      ],
      [
        "£",
        -9.565420963784725
      ],
      [
        "charge",
        -9.565547395990796
      ],
      [
        "demand",
        -9.566883995020737
      ],
      [
        "speech",
        -9.567748911737255
      ],
      [
        "Yes",
        -9.568548325558373
      ],
      [
        "named",
        -9.56856344902256
      ],
      [
        "safe",
        -9.568777676057788
      ],
      [
        "Star",
        -9.56948457157393
      ],
      [
        "benefits",
        -9.569497994221292
      ],
      [
        "town",
        -9.569503236695631
      ],
      [
        "Also",
        -9.569688657061299
      ],
      [
        "2006",
        -9.570570373904747
      ],
      [
        "freedom",
        -9.571982934595338
      ],
      [
        "guys",
        -9.572283854932467
      ],
      [
        "developed",
        -9.572377116773769
      ],
      [
        "crime",
        -9.5726195729506
      ],
      [
        "International",
        -9.572643439635947
      ],
      [
        "increased",
        -9.573366911033528
      ],
      [
        "capital",
        -9.575023280434207
      ],
      [
        "spend",
        -9.575056795465745
      ],
      [
        "bar",
        -9.577298209231275
      ],
      [
        "India",
        -9.579155021522295
      ],
      [
        "rates",
        -9.57935641077472
      ],
      [
        "feature",
        -9.580450574658666
      ],
      [
        "forced",
        -9.581147656572588
      ],
      [
        "Your",
        -9.581295460244178
      ],
      [
        "hat",
        -9.58646573621117
      ],
      [
        "mass",
        -9.587793464824545
      ],
      [
        "Chinese",
        -9.588586044230258
      ],
      [
        "kill",
        -9.590115908022034
      ],
      [
        "benefit",
        -9.590133199647912
      ],
      [
        "eyes",
        -9.590290346100579
      ],
      [
        "picture",
        -9.590566133862563
      ],
      [
        "basic",
        -9.59496612105813
      ],
      [
        "reasons",
        -9.594972856239867
      ],
      [
        "rule",
        -9.595047573592995
      ],
      [
        "200",
        -9.595711533020484
      ],
      [
        "match",
        -9.59571950837098
      ],
      [
        "scale",
        -9.598960265380354
      ],
      [
        "limited",
        -9.599421380637361
      ],
      [
        "programs",
        -9.599475285097261
      ],
      [
        "weight",
        -9.599579762295578
      ],
      [
        "threat",
        -9.599609016642303
      ],
      [
        "treatment",
        -9.600852287821716
      ],
      [
        "pro",
        -9.600892663391997
      ],
      [
        "college",
        -9.601950276215497
      ],
      [
        "26",
        -9.6019982708865
      ],
      [
        "additional",
        -9.602307686585034
      ],
      [
        "Red",
        -9.602470616008741
      ],
      [
        "continued",
        -9.602480006939766
      ],
      [
        "Q",
        -9.602885241954658
      ],
      [
        "marriage",
        -9.603513902821879
      ],
      [
        "prices",
        -9.605427730808962
      ],
      [
        "option",
        -9.606801461888947
      ],
      [
        "{",
        -9.607548586958996
      ],
      [
        "knowledge",
        -9.609834070192747
      ],
      [
        "physical",
        -9.61043949855133
      ],
      [
        "Bill",
        -9.612949982984697
      ],
      [
        "direct",
        -9.614383049682393
      ],
      [
        "application",
        -9.614765502380772
      ],
      [
        "club",
        -9.616170296637788
      ],
      [
        "nice",
        -9.617059772612453
      ],
      [
        "27",
        -9.617273416464496
      ],
      [
        "Z",
        -9.617791147207235
      ],
      [
        "banks",
        -9.618270322858413
      ],
      [
        "highly",
        -9.618817566060223
      ],
      [
        "multiple",
        -9.620019484999341
      ],
      [
        "activity",
        -9.62021275115401
      ],
      [
        "produce",
        -9.62096830356173
      ],
      [
        "throughout",
        -9.621819895262933
      ],
      [
        "helped",
        -9.622887363098823
      ],
      [
        "28",
        -9.623763432463688
      ],
      [
        "extra",
        -9.62468825327608
      ],
      [
        "greater",
        -9.625046290307127
      ],
      [
        "choose",
        -9.626223679135189
      ],
      [
        "visit",
        -9.626267929146138
      ],
      [
        "Another",
        -9.626687464003306
      ],
      [
        "eventually",
        -9.628652382536997
      ],
      [
        "compared",
        -9.63058760082797
      ],
      [
        "Security",
        -9.631054219554137
      ],
      [
        "sell",
        -9.631356508507979
      ],
      [
        "sales",
        -9.63185187190185
      ],
      [
        "towards",
        -9.632798016321292
      ],
      [
        "resources",
        -9.633062751273556
      ],
      [
        "larger",
        -9.63414121462414
      ],
      [
        "core",
        -9.634949143196714
      ],
      [
        "seemed",
        -9.63547627013557
      ],
      [
        "theory",
        -9.635568081082926
      ],
      [
        "doubt",
        -9.636978393520138
      ],
      [
        "ideas",
        -9.637004200478788
      ],
      [
        "title",
        -9.6374820164311
      ],
      [
        "includes",
        -9.637716174650954
      ],
      [
        "intelligence",
        -9.638015808284957
      ],
      [
        "target",
        -9.638449596066655
      ],
      [
        "kept",
        -9.638643144137623
      ],
      [
        "cent",
        -9.638662843376798
      ],
      [
        "80",
        -9.6396329379683
      ],
      [
        "reach",
        -9.640119822386318
      ],
      [
        "moved",
        -9.641219818356612
      ],
      [
        "receive",
        -9.641499309974025
      ],
      [
        "Once",
        -9.642289546093995
      ],
      [
        "Two",
        -9.642863649906179
      ],
      [
        "families",
        -9.643192084883564
      ],
      [
        "ship",
        -9.643236216614385
      ],
      [
        "senior",
        -9.643505287956456
      ],
      [
        "English",
        -9.643735236480781
      ],
      [
        "customers",
        -9.64498840411114
      ],
      [
        "shown",
        -9.645380468872295
      ],
      [
        "gets",
        -9.645682024355937
      ],
      [
        "allows",
        -9.646995060345924
      ],
      [
        "challenge",
        -9.647016640513108
      ],
      [
        "•",
        -9.648142571956313
      ],
      [
        "officers",
        -9.648347954074007
      ],
      [
        "ball",
        -9.651589428155692
      ],
      [
        "Man",
        -9.651651576924857
      ],
      [
        "prevent",
        -9.65168002355091
      ],
      [
        "teams",
        -9.651925826030448
      ],
      [
        "caused",
        -9.652231706641633
      ],
      [
        "born",
        -9.652655366628832
      ],
      [
        "dollars",
        -9.653460869041671
      ],
      [
        "require",
        -9.655451092632678
      ],
      [
        "actions",
        -9.656011037310975
      ],
      [
        "trial",
        -9.660039740079409
      ],
      [
        "positive",
        -9.660552272066681
      ],
      [
        "Mark",
        -9.66095368630502
      ],
      [
        "Black",
        -9.661507428833277
      ],
      [
        "Christian",
        -9.661579028910554
      ],
      [
        "February",
        -9.662065125679701
      ],
      [
        "voters",
        -9.664160508094996
      ],
      [
        "actual",
        -9.665262176181589
      ],
      [
        "perfect",
        -9.66533991992989
      ],
      [
        "Other",
        -9.666299024652204
      ],
      [
        "mission",
        -9.666633734285607
      ],
      [
        "normal",
        -9.667818426908626
      ],
      [
        "complex",
        -9.669908418028184
      ],
      [
        "<",
        -9.670662982652194
      ],
      [
        "lines",
        -9.671393853672962
      ],
      [
        "central",
        -9.671455104023037
      ],
      [
        "executive",
        -9.671873851747385
      ],
      [
        "secret",
        -9.671940442979313
      ],
      [
        "argument",
        -9.672059345677365
      ],
      [
        "whatever",
        -9.672479641182324
      ],
      [
        "Instead",
        -9.67279550863353
      ],
      [
        "General",
        -9.672877840917767
      ],
      [
        "images",
        -9.674682330200092
      ],
      [
        "couldn",
        -9.674765091823572
      ],
      [
        "followed",
        -9.67491645986423
      ],
      [
        "studies",
        -9.675292381098124
      ],
      [
        "speak",
        -9.676396479789888
      ],
      [
        "decades",
        -9.677671297092852
      ],
      [
        "ice",
        -9.679208936999604
      ],
      [
        "rich",
        -9.679348946177798
      ],
      [
        "civil",
        -9.679804541498354
      ],
      [
        "ended",
        -9.681556915499478
      ],
      [
        "parts",
        -9.681661607251748
      ],
      [
        "contract",
        -9.681871642577057
      ],
      [
        "girl",
        -9.682584791847171
      ],
      [
        "lose",
        -9.684748829477666
      ],
      [
        "Japan",
        -9.68506276204813
      ],
      [
        "politics",
        -9.685687565321857
      ],
      [
        "firm",
        -9.686077614503393
      ],
      [
        "successful",
        -9.687240293794133
      ],
      [
        "French",
        -9.687263002870763
      ],
      [
        "section",
        -9.687645425488519
      ],
      [
        "Day",
        -9.689143013678159
      ],
      [
        "mid",
        -9.690317538944331
      ],
      [
        "contact",
        -9.690337110143794
      ],
      [
        "table",
        -9.691165913013684
      ],
      [
        "officer",
        -9.69155799453215
      ],
      [
        "appeared",
        -9.69249539223174
      ],
      [
        "County",
        -9.69466518074722
      ],
      [
        "solution",
        -9.694804982496505
      ],
      [
        "}",
        -9.696444331690161
      ],
      [
        "citizens",
        -9.698896876868261
      ],
      [
        "voice",
        -9.699036164443388
      ],
      [
        "Today",
        -9.699681235597893
      ],
      [
        "massive",
        -9.699858733331384
      ],
      [
        "Post",
        -9.700229206740456
      ],
      [
        "wait",
        -9.700404627289078
      ],
      [
        "memory",
        -9.701245147165878
      ],
      [
        "Smith",
        -9.701522658408592
      ],
      [
        "Minister",
        -9.702308944881109
      ],
      [
        "photo",
        -9.702574212542912
      ],
      [
        "ahead",
        -9.703058648758562
      ],
      [
        "worse",
        -9.703770829644432
      ],
      [
        "sites",
        -9.704617361304962
      ],
      [
        "method",
        -9.704666805912675
      ],
      [
        "fighting",
        -9.705547715091555
      ],
      [
        "creating",
        -9.706806497317029
      ],
      [
        "schools",
        -9.707190042241113
      ],
      [
        "noted",
        -9.70769946281122
      ],
      [
        "Those",
        -9.710375693304792
      ],
      [
        "stand",
        -9.710408676264322
      ],
      [
        "regular",
        -9.711328907383926
      ],
      [
        "interested",
        -9.711922410920225
      ],
      [
        "agree",
        -9.711951007686265
      ],
      [
        "criminal",
        -9.712580353610985
      ],
      [
        "mail",
        -9.712966456174946
      ],
      [
        "ensure",
        -9.713034320308362
      ],
      [
        "gives",
        -9.713505777146729
      ],
      [
        "effective",
        -9.71365311847259
      ],
      [
        "Democratic",
        -9.713834180767153
      ],
      [
        "org",
        -9.716965072223756
      ],
      [
        "authorities",
        -9.71720654095247
      ],
      [
        "fine",
        -9.719197585170566
      ],
      [
        "object",
        -9.719773094683752
      ],
      [
        "prison",
        -9.720307145537094
      ],
      [
        "mobile",
        -9.721944100361062
      ],
      [
        "cancer",
        -9.72240933699379
      ],
      [
        "football",
        -9.722491923930527
      ],
      [
        "battle",
        -9.722742810642051
      ],
      [
        "employees",
        -9.724157926755916
      ],
      [
        "green",
        -9.724624225817028
      ],
      [
        "Institute",
        -9.726723400088666
      ],
      [
        "individuals",
        -9.727186485331025
      ],
      [
        "policies",
        -9.72797913118725
      ],
      [
        "status",
        -9.729364998602323
      ],
      [
        "explain",
        -9.731215514998873
      ],
      [
        "insurance",
        -9.732843647980902
      ],
      [
        "cell",
        -9.732878137402514
      ],
      [
        "happens",
        -9.735173402189915
      ],
      [
        "machine",
        -9.735988367537743
      ],
      [
        "pain",
        -9.73674732316463
      ],
      [
        "calling",
        -9.736994096291054
      ],
      [
        "bottom",
        -9.737151177799747
      ],
      [
        "League",
        -9.737468327305443
      ],
      [
        "Android",
        -9.737549884239204
      ],
      [
        "camera",
        -9.73781352732216
      ],
      [
        "opposition",
        -9.738450852935818
      ],
      [
        "audience",
        -9.738904104632391
      ],
      [
        "29",
        -9.739834001738942
      ],
      [
        "traditional",
        -9.739901942626886
      ],
      [
        "map",
        -9.740398113426126
      ],
      [
        "improve",
        -9.741783543467692
      ],
      [
        "learned",
        -9.741922709417851
      ],
      [
        "generation",
        -9.742062737496504
      ],
      [
        "seeing",
        -9.742307862324456
      ],
      [
        "Image",
        -9.742378388593119
      ],
      [
        "purpose",
        -9.743574718245727
      ],
      [
        "hundreds",
        -9.744442680299633
      ],
      [
        "opinion",
        -9.744452344978917
      ],
      [
        "miles",
        -9.745281722973191
      ],
      [
        "street",
        -9.746037881006416
      ],
      [
        "decade",
        -9.746506385326873
      ],
      [
        "strategy",
        -9.746576237911139
      ],
      [
        "respect",
        -9.74742792399067
      ],
      [
        "stock",
        -9.747487702160228
      ],
      [
        "conservative",
        -9.748646867874921
      ],
      [
        "Robert",
        -9.749179228942683
      ],
      [
        "responsible",
        -9.75028426980522
      ],
      [
        "characters",
        -9.750910556346076
      ],
      [
        "drop",
        -9.75108103757925
      ],
      [
        "launch",
        -9.751809582623613
      ],
      [
        "produced",
        -9.75198903488827
      ],
      [
        "walk",
        -9.75220078513346
      ],
      [
        "devices",
        -9.75221827392382
      ],
      [
        "female",
        -9.75269843598501
      ],
      [
        "unique",
        -9.752968057012927
      ],
      [
        "fall",
        -9.753626860654649
      ],
      [
        "signed",
        -9.753953194105739
      ],
      [
        "Russia",
        -9.75430501138118
      ],
      [
        "Australia",
        -9.754419686081699
      ],
      [
        "block",
        -9.755320539545773
      ],
      [
        "2005",
        -9.756023015721516
      ],
      [
        "manager",
        -9.756723443669522
      ],
      [
        "internet",
        -9.757764531705835
      ],
      [
        "illegal",
        -9.75779516429741
      ],
      [
        "ear",
        -9.757975005765614
      ],
      [
        "asking",
        -9.758348504244472
      ],
      [
        "Yet",
        -9.759693196749893
      ],
      [
        "Wall",
        -9.760477396579876
      ],
      [
        "During",
        -9.760635545500353
      ],
      [
        "35",
        -9.76156386207019
      ],
      [
        "Who",
        -9.761928171942134
      ],
      [
        "offered",
        -9.761983672083117
      ],
      [
        "critical",
        -9.762624057163707
      ],
      [
        "reduce",
        -9.763961618879343
      ],
      [
        "King",
        -9.764057675336138
      ],
      [
        "investment",
        -9.764350079326153
      ],
      [
        "posted",
        -9.76516825575847
      ],
      [
        "Council",
        -9.76587793598302
      ],
      [
        "double",
        -9.76617422349768
      ],
      [
        "legislation",
        -9.767030166011638
      ],
      [
        "grow",
        -9.767558404753876
      ],
      [
        "feeling",
        -9.768052796864222
      ],
      [
        "species",
        -9.768289173084256
      ],
      [
        "claimed",
        -9.768767738054635
      ],
      [
        "cool",
        -9.769071629929044
      ],
      [
        "television",
        -9.770347301756594
      ],
      [
        "push",
        -9.770853353175754
      ],
      [
        "mostly",
        -9.772287936449828
      ],
      [
        "marijuana",
        -9.773936948756281
      ],
      [
        "behavior",
        -9.774155024380905
      ],
      [
        "meaning",
        -9.776479100718065
      ],
      [
        "thus",
        -9.777416671534153
      ],
      [
        "70",
        -9.77769824855458
      ],
      [
        "color",
        -9.777787830184952
      ],
      [
        "reached",
        -9.779498622567042
      ],
      [
        "measure",
        -9.779977327287789
      ],
      [
        "Bank",
        -9.781158155509912
      ],
      [
        "continues",
        -9.781698585252412
      ],
      [
        "surface",
        -9.781771919011723
      ],
      [
        "discovered",
        -9.781792946545348
      ],
      [
        "cuts",
        -9.781816838730519
      ],
      [
        "raised",
        -9.781906233870037
      ],
      [
        "league",
        -9.782641751772255
      ],
      [
        "arrested",
        -9.783128367024391
      ],
      [
        "candidate",
        -9.783202228372
      ],
      [
        "basis",
        -9.784017952026586
      ],
      [
        "Can",
        -9.784288313273532
      ],
      [
        "instance",
        -9.78555238516172
      ],
      [
        "Union",
        -9.785788343212134
      ],
      [
        "fair",
        -9.786270480645184
      ],
      [
        "understanding",
        -9.786577808570229
      ],
      [
        "please",
        -9.78663016637639
      ],
      [
        "sources",
        -9.786864942828911
      ],
      [
        "peace",
        -9.788101391053505
      ],
      [
        "Syria",
        -9.788203141370168
      ],
      [
        "Afghanistan",
        -9.789548114387271
      ],
      [
        "overall",
        -9.789833609324347
      ],
      [
        "station",
        -9.789931023021296
      ],
      [
        "patients",
        -9.790396389216829
      ],
      [
        "Park",
        -9.791076542830961
      ],
      [
        "develop",
        -9.792077317797688
      ],
      [
        "gold",
        -9.79240100694509
      ],
      [
        "coach",
        -9.792772272566111
      ],
      [
        "School",
        -9.79522503190077
      ],
      [
        "path",
        -9.795759390468378
      ],
      [
        "straight",
        -9.79652729508073
      ],
      [
        "charges",
        -9.796644838464692
      ],
      [
        "90",
        -9.796952772200079
      ],
      [
        "believed",
        -9.797030675991154
      ],
      [
        "previously",
        -9.798422387002066
      ],
      [
        "progress",
        -9.798816777748055
      ],
      [
        "influence",
        -9.800284354343285
      ],
      [
        "judge",
        -9.80033478598392
      ],
      [
        "projects",
        -9.80091514966396
      ],
      [
        "generally",
        -9.801012819876087
      ],
      [
        "extremely",
        -9.80133109927753
      ],
      [
        "Press",
        -9.802405609077491
      ],
      [
        "join",
        -9.803395569653876
      ],
      [
        "parties",
        -9.803913612514206
      ],
      [
        "dark",
        -9.804201873985564
      ],
      [
        "church",
        -9.804661485922741
      ],
      [
        "showing",
        -9.805626234685088
      ],
      [
        "easier",
        -9.805784672503016
      ],
      [
        "male",
        -9.80605522963699
      ],
      [
        "Germany",
        -9.806440024199238
      ],
      [
        "German",
        -9.806932347064649
      ],
      [
        "options",
        -9.80751667014949
      ],
      [
        "Brown",
        -9.808744744248644
      ],
      [
        "ight",
        -9.808858861821683
      ],
      [
        "management",
        -9.809367496927116
      ],
      [
        "holding",
        -9.809581359081415
      ],
      [
        "raise",
        -9.810117103516502
      ],
      [
        "cash",
        -9.811573373236223
      ],
      [
        "adding",
        -9.814191455758097
      ],
      [
        "leaving",
        -9.814294522175677
      ],
      [
        "aid",
        -9.815471874555099
      ],
      [
        "funding",
        -9.815713551502352
      ],
      [
        "fuel",
        -9.81653802935776
      ],
      [
        "France",
        -9.816904765423034
      ],
      [
        "cells",
        -9.817442517349576
      ],
      [
        "England",
        -9.818587026239934
      ],
      [
        "structure",
        -9.81899724702014
      ],
      [
        "Big",
        -9.819349974379259
      ],
      [
        "enjoy",
        -9.820196887011312
      ],
      [
        "disease",
        -9.820982896658412
      ],
      [
        "send",
        -9.82265925041126
      ],
      [
        "Over",
        -9.824075463303155
      ],
      [
        "suggest",
        -9.824504531994997
      ],
      [
        "primary",
        -9.824846197757042
      ],
      [
        "winning",
        -9.826826208178847
      ],
      [
        "minister",
        -9.828329139750599
      ],
      [
        "finding",
        -9.828615709169501
      ],
      [
        "concerns",
        -9.828811732548456
      ],
      [
        "minute",
        -9.829732913749412
      ],
      [
        "existing",
        -9.8310462058952
      ],
      [
        "floor",
        -9.831182004280093
      ],
      [
        "clean",
        -9.832350215237394
      ],
      [
        "Justice",
        -9.834371512399853
      ],
      [
        "advantage",
        -9.83520694205983
      ],
      [
        "exist",
        -9.83567027833335
      ],
      [
        "revealed",
        -9.837025888031661
      ],
      [
        "provides",
        -9.837653266317128
      ],
      [
        "incident",
        -9.83853783984147
      ],
      [
        "explained",
        -9.839418913546504
      ],
      [
        "Green",
        -9.839459149460486
      ],
      [
        "Florida",
        -9.839770518824496
      ],
      [
        "corporate",
        -9.840433346070515
      ],
      [
        "waiting",
        -9.841590672942068
      ],
      [
        "Their",
        -9.841827159600497
      ],
      [
        "request",
        -9.842370479070814
      ],
      [
        "spokesman",
        -9.842592630424427
      ],
      [
        "quick",
        -9.842793974651238
      ],
      [
        "carry",
        -9.843322597589557
      ],
      [
        "drugs",
        -9.843395403648367
      ],
      [
        "useful",
        -9.844670389414924
      ],
      [
        "scientific",
        -9.844755938794298
      ],
      [
        "offers",
        -9.846261590196793
      ],
      [
        "Committee",
        -9.847120163359191
      ],
      [
        "32",
        -9.84760459297392
      ],
      [
        "Web",
        -9.848952992555985
      ],
      [
        "separate",
        -9.849704528860547
      ],
      [
        "hearing",
        -9.850094596324096
      ],
      [
        "documents",
        -9.850145080091261
      ],
      [
        "Chicago",
        -9.851111787139924
      ],
      [
        "worst",
        -9.854496531173053
      ],
      [
        ");",
        -9.854870133290515
      ],
      [
        "operations",
        -9.856182733037764
      ],
      [
        "older",
        -9.857503440026534
      ],
      [
        "agreed",
        -9.858129489323463
      ],
      [
        "agreement",
        -9.858141287468694
      ],
      [
        "taxes",
        -9.85826459900715
      ],
      [
        "strike",
        -9.859665543726562
      ],
      [
        "cities",
        -9.859770878731034
      ],
      [
        "31",
        -9.860404509619
      ],
      [
        "obvious",
        -9.861581907506427
      ],
      [
        "Chris",
        -9.862428370322883
      ],
      [
        "active",
        -9.862815761154987
      ],
      [
        "travel",
        -9.86283536408559
      ],
      [
        "serve",
        -9.862992269678372
      ],
      [
        "radio",
        -9.863143789083937
      ],
      [
        "blue",
        -9.865283682073052
      ],
      [
        "abuse",
        -9.866233102245088
      ],
      [
        "Both",
        -9.866299980730746
      ],
      [
        "Jewish",
        -9.866588756457165
      ],
      [
        "types",
        -9.867015230965125
      ],
      [
        "daily",
        -9.867710108555778
      ],
      [
        "45",
        -9.868455907033779
      ],
      [
        "tools",
        -9.869591784576535
      ],
      [
        "concerned",
        -9.869793292378619
      ],
      [
        "super",
        -9.870287503957037
      ],
      [
        "platform",
        -9.870731447916686
      ],
      [
        "hospital",
        -9.871709503462748
      ],
      [
        "discussion",
        -9.871789851733665
      ],
      [
        "putting",
        -9.872766033681811
      ],
      [
        "dangerous",
        -9.872854568759863
      ],
      [
        "opening",
        -9.873470265420687
      ],
      [
        "Research",
        -9.874709665298557
      ],
      [
        "heavy",
        -9.875978235021828
      ],
      [
        "Los",
        -9.876367378778037
      ],
      [
        "willing",
        -9.877165476034312
      ],
      [
        "justice",
        -9.877274273541223
      ],
      [
        "Mike",
        -9.877597959155455
      ],
      [
        "presidential",
        -9.877671878616843
      ],
      [
        "concept",
        -9.8777666388255
      ],
      [
        "weekend",
        -9.878119928525411
      ],
      [
        "BBC",
        -9.878904033708295
      ],
      [
        "Office",
        -9.878956049990064
      ],
      [
        "Health",
        -9.880220316150991
      ],
      [
        "shooting",
        -9.880333351467884
      ],
      [
        "Federal",
        -9.880981830112672
      ],
      [
        "commercial",
        -9.881403276998055
      ],
      [
        "boy",
        -9.88179344657385
      ],
      [
        "becoming",
        -9.881828793348129
      ],
      [
        "foot",
        -9.881866080352395
      ],
      [
        "2004",
        -9.882613197564744
      ],
      [
        "confirmed",
        -9.883173106622614
      ],
      [
        "Government",
        -9.883292876093327
      ],
      [
        "smaller",
        -9.88350928722526
      ],
      [
        "telling",
        -9.883623847066339
      ],
      [
        "entirely",
        -9.88427217854869
      ],
      [
        "killing",
        -9.884373226977445
      ],
      [
        "Western",
        -9.884420967260928
      ],
      [
        "00",
        -9.885548717102182
      ],
      [
        "operation",
        -9.885854842504154
      ],
      [
        "host",
        -9.887780823212104
      ],
      [
        "concern",
        -9.888419975968944
      ],
      [
        "supposed",
        -9.888505810954857
      ],
      [
        "values",
        -9.88850669310932
      ],
      [
        "religion",
        -9.890420292096126
      ],
      [
        "accept",
        -9.890858298867226
      ],
      [
        "notes",
        -9.891861231775312
      ],
      [
        "degree",
        -9.892521626738118
      ],
      [
        "requires",
        -9.892718622747442
      ],
      [
        "background",
        -9.892812893288779
      ],
      [
        "2000",
        -9.893618563267909
      ],
      [
        "digital",
        -9.894752482691576
      ],
      [
        "wind",
        -9.895078093737244
      ],
      [
        "highest",
        -9.895326903763463
      ],
      [
        "iPhone",
        -9.89591220095808
      ],
      [
        "setting",
        -9.896527064626222
      ],
      [
        "associated",
        -9.896568160790288
      ],
      [
        "Martin",
        -9.896574638383303
      ],
      [
        "Muslim",
        -9.897127012535922
      ],
      [
        "truly",
        -9.897314896498008
      ],
      [
        "standing",
        -9.897590804868681
      ],
      [
        "display",
        -9.897888353031687
      ],
      [
        "aware",
        -9.898163837835796
      ],
      [
        "location",
        -9.898335379767369
      ],
      [
        "professional",
        -9.898488604269442
      ],
      [
        "proposed",
        -9.898872046084547
      ],
      [
        "Are",
        -9.898872286240456
      ],
      [
        "meant",
        -9.899299075877545
      ],
      [
        "uses",
        -9.899565187136913
      ],
      [
        "watching",
        -9.899864340348618
      ],
      [
        "dozen",
        -9.899987540686489
      ],
      [
        "direction",
        -9.900049905996063
      ],
      [
        "apparently",
        -9.900734435336371
      ],
      [
        "competition",
        -9.900862126818106
      ],
      [
        "trust",
        -9.900992587314143
      ],
      [
        "whom",
        -9.901174551604548
      ],
      [
        "spot",
        -9.901767939487044
      ],
      [
        "spread",
        -9.901807328269715
      ],
      [
        "Time",
        -9.902212166544038
      ],
      [
        "animals",
        -9.90295760101393
      ],
      [
        "keeping",
        -9.903084151900101
      ],
      [
        "Her",
        -9.90340707664474
      ],
      [
        "records",
        -9.90367807861861
      ],
      [
        "files",
        -9.904055779547846
      ],
      [
        "failure",
        -9.90505665037121
      ],
      [
        "places",
        -9.905459958614498
      ],
      [
        "Africa",
        -9.905839053251158
      ],
      [
        "Mac",
        -9.906845564306643
      ],
      [
        "closed",
        -9.907703154482325
      ],
      [
        "goals",
        -9.908071733203409
      ],
      [
        "tool",
        -9.908137066406582
      ],
      [
        "300",
        -9.90846096372455
      ],
      [
        "supply",
        -9.908474529178358
      ],
      [
        "Britain",
        -9.909201580680811
      ],
      [
        "traffic",
        -9.90985389751042
      ],
      [
        "plant",
        -9.911188143146491
      ],
      [
        "coverage",
        -9.912595771968196
      ],
      [
        "committee",
        -9.91321241562667
      ],
      [
        "Peter",
        -9.915713293000042
      ],
      [
        "Despite",
        -9.916941468562612
      ],
      [
        "learning",
        -9.91817941658369
      ],
      [
        "victims",
        -9.918326358649038
      ],
      [
        "reform",
        -9.918340236305639
      ],
      [
        "unit",
        -9.918449796701509
      ],
      [
        "operating",
        -9.92076320423463
      ],
      [
        "millions",
        -9.920897270339665
      ],
      [
        "Please",
        -9.921820079778568
      ],
      [
        "planet",
        -9.923607795775373
      ],
      [
        "guess",
        -9.923974398754691
      ],
      [
        "charged",
        -9.924559208288832
      ],
      [
        "quarter",
        -9.92459199459316
      ],
      [
        "unless",
        -9.929744125274373
      ],
      [
        "paying",
        -9.930660875145795
      ],
      [
        "activities",
        -9.931342172872938
      ],
      [
        "driving",
        -9.932269762403209
      ],
      [
        "supported",
        -9.93266184581269
      ],
      [
        "beat",
        -9.933948660786141
      ],
      [
        "therefore",
        -9.934651555376611
      ],
      [
        "balance",
        -9.935051494344613
      ],
      [
        "negative",
        -9.935115769368645
      ],
      [
        "definitely",
        -9.935442464724698
      ],
      [
        "protest",
        -9.93571402529808
      ],
      [
        "length",
        -9.936104782983772
      ],
      [
        "Russian",
        -9.93642074305009
      ],
      [
        "opened",
        -9.937493106216346
      ],
      [
        "names",
        -9.939959311275956
      ],
      [
        "Fox",
        -9.942354917524945
      ],
      [
        "Jones",
        -9.942801696326322
      ],
      [
        "click",
        -9.942876889477406
      ],
      [
        "decide",
        -9.943039555120661
      ],
      [
        "regime",
        -9.943187036525766
      ],
      [
        "otherwise",
        -9.943756732414625
      ],
      [
        "cross",
        -9.94420857814219
      ],
      [
        "dog",
        -9.944375182519614
      ],
      [
        "accused",
        -9.945401270073999
      ],
      [
        "):",
        -9.94677460313872
      ],
      [
        "planning",
        -9.948245701552983
      ],
      [
        "seven",
        -9.94852562524008
      ],
      [
        "cars",
        -9.948684383908681
      ],
      [
        "suggested",
        -9.94895564241391
      ],
      [
        "faith",
        -9.950418808705157
      ],
      [
        "window",
        -9.951579682878279
      ],
      [
        "UN",
        -9.952360531425777
      ],
      [
        "document",
        -9.953403236333655
      ],
      [
        "largely",
        -9.953522323693004
      ],
      [
        "union",
        -9.954245930333208
      ],
      [
        "items",
        -9.954500585974841
      ],
      [
        "Photo",
        -9.954766598860731
      ],
      [
        "testing",
        -9.955351220565351
      ],
      [
        "Game",
        -9.956634690514862
      ],
      [
        "labor",
        -9.957749255825298
      ],
      [
        "professor",
        -9.957863540018732
      ],
      [
        "cast",
        -9.959361626507862
      ],
      [
        "caught",
        -9.959797941775209
      ],
      [
        "selling",
        -9.959804316778614
      ],
      [
        "touch",
        -9.960528902757645
      ],
      [
        "mentioned",
        -9.964796269666566
      ],
      [
        "owner",
        -9.965413079655919
      ],
      [
        "increasingly",
        -9.966525057428822
      ],
      [
        "PC",
        -9.966997720809502
      ],
      [
        "relatively",
        -9.96708369815508
      ],
      [
        "Science",
        -9.967479967999694
      ],
      [
        "condition",
        -9.967859758413747
      ],
      [
        "draw",
        -9.96818380834834
      ],
      [
        "GOP",
        -9.970157715950037
      ],
      [
        "impossible",
        -9.971120080767923
      ],
      [
        "connection",
        -9.971655010839902
      ],
      [
        "alternative",
        -9.973376231431798
      ],
      [
        "applications",
        -9.975104324328827
      ],
      [
        "context",
        -9.975812201637853
      ],
      [
        "allowing",
        -9.976018943510471
      ],
      [
        "issued",
        -9.976298522704562
      ],
      [
        "daughter",
        -9.976653075902519
      ],
      [
        "imagine",
        -9.977049685730112
      ],
      [
        "protection",
        -9.977114579222384
      ],
      [
        "department",
        -9.977222602415178
      ],
      [
        "moral",
        -9.977771196005701
      ],
      [
        "wish",
        -9.977785144241667
      ],
      [
        "maintain",
        -9.977926964024283
      ],
      [
        "launched",
        -9.977954778472263
      ],
      [
        "sector",
        -9.978360682667601
      ],
      [
        "Media",
        -9.97853361856619
      ],
      [
        "Great",
        -9.9787546551166
      ],
      [
        "African",
        -9.979757292326202
      ],
      [
        "possibly",
        -9.98053520277062
      ],
      [
        "Association",
        -9.983328998146401
      ],
      [
        "determine",
        -9.983637530905614
      ],
      [
        "Get",
        -9.984338208083772
      ],
      [
        "Ryan",
        -9.984534413535716
      ],
      [
        "Canadian",
        -9.98473755110353
      ],
      [
        "photos",
        -9.984956111522074
      ],
      [
        "carbon",
        -9.985558699078753
      ],
      [
        "providing",
        -9.985916438392659
      ],
      [
        "collection",
        -9.98618285163187
      ],
      [
        "annual",
        -9.986485880242482
      ],
      [
        "changing",
        -9.986830887738043
      ],
      [
        "Tom",
        -9.987898954114817
      ],
      [
        "measures",
        -9.988189484131665
      ],
      [
        "birth",
        -9.988423565534426
      ],
      [
        "becomes",
        -9.989487786777623
      ],
      [
        "stopped",
        -9.989899633797783
      ],
      [
        "conflict",
        -9.989900574883407
      ],
      [
        "strength",
        -9.990338180445516
      ],
      [
        "gain",
        -9.990357981667684
      ],
      [
        "notice",
        -9.991105343725913
      ],
      [
        "Richard",
        -9.991493997524834
      ],
      [
        "spoke",
        -9.992155907132078
      ],
      [
        "trip",
        -9.992246595515502
      ],
      [
        "update",
        -9.99407871585836
      ],
      [
        "except",
        -9.9956117192921
      ],
      [
        "suggests",
        -9.995914714885842
      ],
      [
        "THE",
        -9.996195409203503
      ],
      [
        "Clinton",
        -9.997983122505987
      ],
      [
        "solar",
        -9.998100484857561
      ],
      [
        "interests",
        -9.998309754613203
      ],
      [
        "Mexico",
        -9.998388676398154
      ],
      [
        "slightly",
        -9.99886720641447
      ],
      [
        "expensive",
        -9.999183096882877
      ],
      [
        "absolutely",
        -9.999587880021794
      ],
      [
        "server",
        -9.99968454123186
      ],
      [
        "businesses",
        -9.9999424245168
      ],
      [
        "domestic",
        -10.00006313731929
      ],
      [
        "fell",
        -10.001998589192105
      ],
      [
        "increasing",
        -10.00205234962679
      ],
      [
        "husband",
        -10.002250627128905
      ],
      [
        "hair",
        -10.002859990062843
      ],
      [
        "song",
        -10.00391319600526
      ],
      [
        "served",
        -10.005399058366063
      ],
      [
        "Free",
        -10.006808787478656
      ],
      [
        "plus",
        -10.00895598148215
      ],
      [
        "army",
        -10.009569448974087
      ],
      [
        "slow",
        -10.010165511730001
      ],
      [
        "developers",
        -10.011324590218978
      ],
      [
        "camp",
        -10.011949643034999
      ],
      [
        "returned",
        -10.012270765396641
      ],
      [
        "troops",
        -10.01245779322692
      ],
      [
        "managed",
        -10.012616386038784
      ],
      [
        "sold",
        -10.013046728067888
      ],
      [
        "Read",
        -10.013483104973805
      ],
      [
        "variety",
        -10.014344683464309
      ],
      [
        "USA",
        -10.014673882318652
      ],
      [
        "Every",
        -10.015006298537168
      ],
      [
        "elements",
        -10.015714848837508
      ],
      [
        "Air",
        -10.015718837315191
      ],
      [
        "surprise",
        -10.016130934393892
      ],
      [
        "Maybe",
        -10.016735400887619
      ],
      [
        "funds",
        -10.016777675725876
      ],
      [
        "girls",
        -10.017274534667465
      ],
      [
        "presence",
        -10.017337787470417
      ],
      [
        "correct",
        -10.01758434110965
      ],
      [
        "border",
        -10.018379153844565
      ],
      [
        "initial",
        -10.019218571875314
      ],
      [
        "counter",
        -10.0197233704965
      ],
      [
        "Will",
        -10.01975118455195
      ],
      [
        "Joe",
        -10.02037938363874
      ],
      [
        "leadership",
        -10.02052723991796
      ],
      [
        "rock",
        -10.020622162452897
      ],
      [
        "soldiers",
        -10.020805240558532
      ],
      [
        "false",
        -10.020864378687081
      ],
      [
        "Johnson",
        -10.021625835929589
      ],
      [
        "possibility",
        -10.02191469212862
      ],
      [
        "99",
        -10.022027835399525
      ],
      [
        "indeed",
        -10.022326706825044
      ],
      [
        "Only",
        -10.022550952033143
      ],
      [
        "speaking",
        -10.02292072275508
      ],
      [
        "ruling",
        -10.023976847526203
      ],
      [
        "remove",
        -10.025025435648578
      ],
      [
        "crowd",
        -10.025098474154126
      ],
      [
        "runs",
        -10.025632426376735
      ],
      [
        "worry",
        -10.02679350025929
      ],
      [
        "established",
        -10.027664144622804
      ],
      [
        "removed",
        -10.028572661194683
      ],
      [
        "bigger",
        -10.029118127365528
      ],
      [
        "2003",
        -10.029511471838056
      ],
      [
        "writer",
        -10.029768469801446
      ],
      [
        "brand",
        -10.029896339530419
      ],
      [
        "prove",
        -10.029978058115857
      ],
      [
        "animal",
        -10.030586338259026
      ],
      [
        "partner",
        -10.031908629446198
      ],
      [
        "pull",
        -10.032415081498407
      ],
      [
        "views",
        -10.032546939893496
      ],
      [
        "residents",
        -10.032888500019506
      ],
      [
        "baby",
        -10.03352211963541
      ],
      [
        "committed",
        -10.033989847679342
      ],
      [
        "amazing",
        -10.03404025059378
      ],
      [
        "Pakistan",
        -10.035278895242095
      ],
      [
        "default",
        -10.035672019941149
      ],
      [
        "beer",
        -10.036825646152149
      ],
      [
        "authority",
        -10.036925224459525
      ],
      [
        "vehicle",
        -10.037044422912219
      ],
      [
        "limit",
        -10.037279426248167
      ],
      [
        "focused",
        -10.03779910273863
      ],
      [
        "Supreme",
        -10.038036184486277
      ],
      [
        "developing",
        -10.039859132317465
      ],
      [
        "Japanese",
        -10.040006129721212
      ],
      [
        "train",
        -10.041534579445187
      ],
      [
        "Good",
        -10.042510856250537
      ],
      [
        "Bay",
        -10.04288066073918
      ],
      [
        "placed",
        -10.043504951305975
      ],
      [
        "profit",
        -10.04470155133632
      ],
      [
        "famous",
        -10.044728754679326
      ],
      [
        "2001",
        -10.044933068425657
      ],
      [
        "wing",
        -10.044944327230182
      ],
      [
        "standards",
        -10.045010052762215
      ],
      [
        "thanks",
        -10.045218502674981
      ],
      [
        "tough",
        -10.045474517293133
      ],
      [
        "command",
        -10.046479748666664
      ],
      [
        "lots",
        -10.047067492462805
      ],
      [
        "Ben",
        -10.047215312152575
      ],
      [
        "responsibility",
        -10.047895915322968
      ],
      [
        "mention",
        -10.047987022120981
      ],
      [
        "exchange",
        -10.048531046238866
      ],
      [
        "lived",
        -10.048608686636607
      ],
      [
        "appeal",
        -10.049295262381806
      ],
      [
        "Korea",
        -10.049948447679801
      ],
      [
        "Church",
        -10.052481218995275
      ],
      [
        "Thomas",
        -10.052772193070933
      ],
      [
        "enforcement",
        -10.053104426403523
      ],
      [
        "missing",
        -10.05371417711179
      ],
      [
        "shut",
        -10.055882000467486
      ],
      [
        "experts",
        -10.056937607615048
      ],
      [
        "figures",
        -10.058103792082324
      ],
      [
        "planned",
        -10.058778852069938
      ],
      [
        "carried",
        -10.059105122214088
      ],
      [
        "Boston",
        -10.059418980639851
      ],
      [
        "fish",
        -10.059675358081977
      ],
      [
        "yesterday",
        -10.060511656933434
      ],
      [
        "decisions",
        -10.060819657890068
      ],
      [
        "High",
        -10.061301212143892
      ],
      [
        "engine",
        -10.061624517207244
      ],
      [
        "apply",
        -10.061694303371086
      ],
      [
        "Scott",
        -10.062173685316425
      ],
      [
        "covered",
        -10.062415323015085
      ],
      [
        "identified",
        -10.06325691275968
      ],
      [
        "cold",
        -10.064160408088677
      ],
      [
        "communities",
        -10.064202080503664
      ],
      [
        "Angeles",
        -10.064488531213701
      ],
      [
        "victory",
        -10.065386615357665
      ],
      [
        "fellow",
        -10.065392941200152
      ],
      [
        "enter",
        -10.065675648613235
      ],
      [
        "wood",
        -10.066783769171009
      ],
      [
        "construction",
        -10.070503098269118
      ],
      [
        "knows",
        -10.070539528060939
      ],
      [
        "owners",
        -10.071875227663625
      ],
      [
        "introduced",
        -10.072525436764947
      ],
      [
        "driver",
        -10.072526485129131
      ],
      [
        "episode",
        -10.073317933230259
      ],
      [
        "Super",
        -10.073457403191448
      ],
      [
        "happening",
        -10.073669356537984
      ],
      [
        "shared",
        -10.073969536784588
      ],
      [
        "Service",
        -10.074149965182116
      ],
      [
        "giant",
        -10.075405710260094
      ],
      [
        "Group",
        -10.075416160428738
      ],
      [
        "Middle",
        -10.075606170752993
      ],
      [
        "healthy",
        -10.075658660980796
      ],
      [
        "Sen",
        -10.075960644755215
      ],
      [
        "armed",
        -10.076789155317542
      ],
      [
        "Barack",
        -10.07680365796032
      ],
      [
        "skin",
        -10.077530775242492
      ],
      [
        "count",
        -10.077925107392112
      ],
      [
        "faster",
        -10.078481782544634
      ],
      [
        "broken",
        -10.079024229906128
      ],
      [
        "murder",
        -10.079210656477235
      ],
      [
        "task",
        -10.079609577030155
      ],
      [
        "skills",
        -10.08231806967768
      ],
      [
        "Before",
        -10.08257327737655
      ],
      [
        "conversation",
        -10.084427251757102
      ],
      [
        "About",
        -10.084480150819402
      ],
      [
        "shape",
        -10.084679340363595
      ],
      [
        "package",
        -10.08504593231597
      ],
      [
        "stated",
        -10.085578984650533
      ],
      [
        "Palestinian",
        -10.086592644270379
      ],
      [
        "sports",
        -10.08753588744825
      ],
      [
        "Under",
        -10.088403204399619
      ],
      [
        "trouble",
        -10.088501780094374
      ],
      [
        "earth",
        -10.088517216335418
      ],
      [
        "shift",
        -10.088680306249012
      ],
      [
        "NASA",
        -10.088809244072213
      ],
      [
        "seeking",
        -10.08911447050914
      ],
      [
        "Steve",
        -10.090626884117013
      ],
      [
        "arms",
        -10.090639786275705
      ],
      [
        "twice",
        -10.090751137641261
      ],
      [
        "Though",
        -10.090842831209402
      ],
      [
        "CNN",
        -10.090871340729086
      ],
      [
        "copy",
        -10.09248635554848
      ],
      [
        "environmental",
        -10.094633778412916
      ],
      [
        "brother",
        -10.094707036248352
      ],
      [
        "sleep",
        -10.095277307201759
      ],
      [
        "wonder",
        -10.096659871020483
      ],
      [
        "realize",
        -10.097400502141577
      ],
      [
        "readers",
        -10.097648244940945
      ],
      [
        "models",
        -10.097988982668166
      ],
      [
        "favor",
        -10.099461593796766
      ],
      [
        "desire",
        -10.100078561742144
      ],
      [
        "Still",
        -10.101147163688122
      ],
      [
        "poll",
        -10.101324941968699
      ],
      [
        "fund",
        -10.10307623719618
      ],
      [
        "vast",
        -10.103294567212593
      ],
      [
        "draft",
        -10.103914847279711
      ],
      [
        "Army",
        -10.104163606822173
      ],
      [
        "mode",
        -10.10454906045085
      ],
      [
        "sitting",
        -10.105154904500369
      ],
      [
        "bought",
        -10.106121709185004
      ],
      [
        "error",
        -10.106193104245461
      ],
      [
        "internal",
        -10.10797223073537
      ],
      [
        "Back",
        -10.108167816804675
      ],
      [
        "Each",
        -10.109660123332814
      ],
      [
        "supporters",
        -10.110785061269835
      ],
      [
        "familiar",
        -10.11115825366864
      ],
      [
        "prepared",
        -10.113266567908445
      ],
      [
        "McCain",
        -10.113276954349095
      ],
      [
        "survey",
        -10.113636880410521
      ],
      [
        "tree",
        -10.113822039648207
      ],
      [
        "agencies",
        -10.11420564078664
      ],
      [
        "tells",
        -10.115219932757618
      ],
      [
        "dropped",
        -10.115270476850434
      ],
      [
        "beautiful",
        -10.115474754377734
      ],
      [
        "consumers",
        -10.115575575718482
      ],
      [
        "Law",
        -10.116865567872372
      ],
      [
        "markets",
        -10.117051801345813
      ],
      [
        "helping",
        -10.117220107110256
      ],
      [
        "mental",
        -10.11762586308607
      ],
      [
        "newspaper",
        -10.11783239781482
      ],
      [
        "capacity",
        -10.118011719660492
      ],
      [
        "struggle",
        -10.118438169433956
      ],
      [
        "editor",
        -10.121714208485436
      ],
      [
        "arrived",
        -10.122667363411168
      ],
      [
        "equal",
        -10.123871382496974
      ],
      [
        "CEO",
        -10.124454506393143
      ],
      [
        "intended",
        -10.125255806553405
      ],
      [
        "Right",
        -10.125910828972053
      ],
      [
        "victim",
        -10.126009677385737
      ],
      [
        "jail",
        -10.126218086815083
      ],
      [
        "Pro",
        -10.127562794211997
      ],
      [
        "owned",
        -10.128939491870828
      ],
      [
        "Life",
        -10.129052778326827
      ],
      [
        "turns",
        -10.129117280263698
      ],
      [
        "zone",
        -10.129245509722395
      ],
      [
        "Journal",
        -10.129576253907267
      ],
      [
        "Take",
        -10.129605279147151
      ],
      [
        "dollar",
        -10.129832050107442
      ],
      [
        "politicians",
        -10.130168775947935
      ],
      [
        "Public",
        -10.13157518256339
      ],
      [
        "seriously",
        -10.131751961382742
      ],
      [
        "sounds",
        -10.13238947806278
      ],
      [
        "losing",
        -10.132943338258432
      ],
      [
        "prime",
        -10.133077470052662
      ],
      [
        "fourth",
        -10.133097204480732
      ],
      [
        "Commission",
        -10.1335756616415
      ],
      [
        "obviously",
        -10.13376685450882
      ],
      [
        "presented",
        -10.133792292591652
      ],
      [
        "solid",
        -10.133954701448586
      ],
      [
        "joined",
        -10.134970406265618
      ],
      [
        "Human",
        -10.135321697115836
      ],
      [
        "lies",
        -10.13549518805552
      ],
      [
        "capable",
        -10.136229402266054
      ],
      [
        "factor",
        -10.136572482191015
      ],
      [
        "wall",
        -10.136819109614622
      ],
      [
        "Social",
        -10.13713150474659
      ],
      [
        "throw",
        -10.13725040018519
      ],
      [
        "400",
        -10.14009951601953
      ],
      [
        "tests",
        -10.140361588534692
      ],
      [
        "cultural",
        -10.14060530575562
      ],
      [
        "corner",
        -10.141195334822138
      ],
      [
        "Indian",
        -10.141258217378455
      ],
      [
        "organizations",
        -10.141293319847843
      ],
      [
        "filed",
        -10.141489650637544
      ],
      [
        "edge",
        -10.143289793543593
      ],
      [
        "housing",
        -10.143534128329156
      ],
      [
        "Egypt",
        -10.145079084196443
      ],
      [
        "mark",
        -10.145463657991403
      ],
      [
        "candidates",
        -10.145613985073709
      ],
      [
        "OS",
        -10.145937357464845
      ],
      [
        "vision",
        -10.14683570278462
      ],
      [
        "methods",
        -10.14741942572227
      ],
      [
        "finished",
        -10.14852222022489
      ],
      [
        "Amazon",
        -10.148792512429662
      ],
      [
        "offering",
        -10.149786814600162
      ],
      [
        "sub",
        -10.150562960361517
      ],
      [
        "steps",
        -10.150827358028765
      ],
      [
        "argue",
        -10.151440135692464
      ],
      [
        "sale",
        -10.151934469793392
      ],
      [
        "privacy",
        -10.152506693013521
      ],
      [
        "prior",
        -10.154356081724233
      ],
      [
        "plants",
        -10.156008287157587
      ],
      [
        "panel",
        -10.156984798094934
      ],
      [
        "EU",
        -10.157168612619305
      ],
      [
        "pages",
        -10.157279543832024
      ],
      [
        "appropriate",
        -10.157679033544062
      ],
      [
        "Secretary",
        -10.157690566426881
      ],
      [
        "Note",
        -10.158170377394487
      ],
      [
        "treated",
        -10.159068489969698
      ],
      [
        "seek",
        -10.15980178287512
      ],
      [
        "print",
        -10.15984959224423
      ],
      [
        "plenty",
        -10.159977005765077
      ],
      [
        "eating",
        -10.160237311607185
      ],
      [
        "park",
        -10.161130054692595
      ],
      [
        "revenue",
        -10.16113842540806
      ],
      [
        "believes",
        -10.16164933360618
      ],
      [
        "elected",
        -10.16191928754725
      ],
      [
        "exercise",
        -10.162395121882952
      ],
      [
        "purchase",
        -10.16268914950607
      ],
      [
        "north",
        -10.163344069777752
      ],
      [
        "Linux",
        -10.16421844548961
      ],
      [
        "wearing",
        -10.164421811358249
      ],
      [
        "distance",
        -10.165666855337246
      ],
      [
        "alleged",
        -10.166102025455395
      ],
      [
        "determined",
        -10.166148654631833
      ],
      [
        "flight",
        -10.166436903671157
      ],
      [
        "chemical",
        -10.16706902385228
      ],
      [
        "75",
        -10.167755275661527
      ],
      [
        "equipment",
        -10.167770396740138
      ],
      [
        "Perhaps",
        -10.168386159827696
      ],
      [
        "ending",
        -10.168958372552638
      ],
      [
        "ultimately",
        -10.169420516471774
      ],
      [
        "injury",
        -10.169562447740315
      ],
      [
        "bus",
        -10.17040504221034
      ],
      [
        "pointed",
        -10.170781151476804
      ],
      [
        "arrest",
        -10.171068074557791
      ],
      [
        "refused",
        -10.171366965121921
      ],
      [
        "FBI",
        -10.1713930026365
      ],
      [
        "attorney",
        -10.171753174230346
      ],
      [
        "Sun",
        -10.17242013494622
      ],
      [
        "fired",
        -10.172606201588643
      ],
      [
        "democracy",
        -10.172730043710773
      ],
      [
        "estimated",
        -10.172900108855503
      ],
      [
        "tech",
        -10.174091303210808
      ],
      [
        "cards",
        -10.174213455533229
      ],
      [
        "download",
        -10.1744259500351
      ],
      [
        "Team",
        -10.174694126764743
      ],
      [
        "filled",
        -10.175005386864212
      ],
      [
        "facing",
        -10.175130381613812
      ],
      [
        "experiment",
        -10.175175506463669
      ],
      [
        "2014",
        -10.175558964202645
      ],
      [
        "greatest",
        -10.175612034931495
      ],
      [
        "Rep",
        -10.17622179827884
      ],
      [
        "2002",
        -10.176253934853309
      ],
      [
        "discuss",
        -10.17704511352275
      ],
      [
        "closer",
        -10.17744726568869
      ],
      [
        "Prime",
        -10.177505846324525
      ],
      [
        "arm",
        -10.177509742980474
      ],
      [
        "reporting",
        -10.179104597059
      ],
      [
        "resolution",
        -10.179207122461817
      ],
      [
        "handle",
        -10.17958396981886
      ],
      [
        "catch",
        -10.181341485343989
      ],
      [
        "mine",
        -10.18172432672558
      ],
      [
        "Foundation",
        -10.182575782074576
      ],
      [
        "forms",
        -10.183111435701786
      ],
      [
        "violent",
        -10.183748761587529
      ],
      [
        "Where",
        -10.184278540938026
      ],
      [
        "talks",
        -10.184874259342015
      ],
      [
        "client",
        -10.184885938643095
      ],
      [
        "streets",
        -10.185329677143974
      ],
      [
        "assault",
        -10.185851719584518
      ],
      [
        "proposal",
        -10.185871900544075
      ],
      [
        "profile",
        -10.185976174401244
      ],
      [
        "smart",
        -10.18655154193235
      ],
      [
        "Arab",
        -10.187008176517866
      ],
      [
        "agent",
        -10.187449840505785
      ],
      [
        "advice",
        -10.187580876308362
      ],
      [
        "Meanwhile",
        -10.187904352291742
      ],
      [
        "button",
        -10.187968084513775
      ],
      [
        "regarding",
        -10.18854586209771
      ],
      [
        "deficit",
        -10.188877121019557
      ],
      [
        "stars",
        -10.18956241859859
      ],
      [
        "fairly",
        -10.190071088152079
      ],
      [
        "percentage",
        -10.190508808562184
      ],
      [
        "33",
        -10.191662736473607
      ],
      [
        "extreme",
        -10.191914642248124
      ],
      [
        "pictures",
        -10.191938610210268
      ],
      [
        "identity",
        -10.192120109934523
      ],
      [
        "Daily",
        -10.19218643587432
      ],
      [
        "Space",
        -10.192953633557188
      ],
      [
        "bringing",
        -10.19322402958689
      ],
      [
        "reference",
        -10.193594491859818
      ],
      [
        "affect",
        -10.1942281124922
      ],
      [
        "rape",
        -10.195742317777803
      ],
      [
        "magazine",
        -10.196247129257705
      ],
      [
        "suit",
        -10.196739558305682
      ],
      [
        "district",
        -10.197438367218254
      ],
      [
        "consumer",
        -10.197681917570833
      ],
      [
        "Open",
        -10.198404761568165
      ],
      [
        "Syrian",
        -10.199074786712126
      ],
      [
        "bodies",
        -10.19947578959033
      ],
      [
        "accounts",
        -10.199879823124377
      ],
      [
        "novel",
        -10.200100008723185
      ],
      [
        "shall",
        -10.200176711061967
      ],
      [
        "respond",
        -10.200311192396496
      ],
      [
        "specifically",
        -10.20226942993192
      ],
      [
        "belief",
        -10.202759079643405
      ],
      [
        "fresh",
        -10.202939795601619
      ],
      [
        "turning",
        -10.20428653982438
      ],
      [
        "basically",
        -10.205330253125812
      ],
      [
        "activists",
        -10.205363564890138
      ],
      [
        "CIA",
        -10.206533527910146
      ],
      [
        "achieve",
        -10.206557100188855
      ],
      [
        "broke",
        -10.20715239790889
      ],
      [
        "linked",
        -10.209919883570777
      ],
      [
        "universe",
        -10.211540226599801
      ],
      [
        "opposed",
        -10.212216948997524
      ],
      [
        "creation",
        -10.213251013704122
      ],
      [
        "caption",
        -10.213779862313087
      ],
      [
        "existence",
        -10.21417045393995
      ],
      [
        "weather",
        -10.214337331247926
      ],
      [
        "humans",
        -10.215192458251646
      ],
      [
        "multi",
        -10.216684498084698
      ],
      [
        "contrast",
        -10.217090161712395
      ],
      [
        "technical",
        -10.217093668156815
      ],
      [
        "elections",
        -10.217431449609744
      ],
      [
        "Lee",
        -10.218031234066572
      ],
      [
        "pieces",
        -10.220041676820367
      ],
      [
        "score",
        -10.22029334144861
      ],
      [
        "buying",
        -10.220605391898882
      ],
      [
        "broad",
        -10.22299618495802
      ],
      [
        "sharing",
        -10.225196639867244
      ],
      [
        "offensive",
        -10.225293206018463
      ],
      [
        "experienced",
        -10.226295301764116
      ],
      [
        "potentially",
        -10.2263101540653
      ],
      [
        "objects",
        -10.226534300651192
      ],
      [
        "abortion",
        -10.227641168153117
      ],
      [
        "rising",
        -10.228795548567408
      ],
      [
        "fix",
        -10.229785891814451
      ],
      [
        "hardware",
        -10.229954959658814
      ],
      [
        "College",
        -10.23057238732115
      ],
      [
        "voting",
        -10.230958896228342
      ],
      [
        "hurt",
        -10.231257196063009
      ],
      [
        "represent",
        -10.231853886933228
      ],
      [
        "lawyer",
        -10.233236664406972
      ],
      [
        "Central",
        -10.234482422339411
      ],
      [
        "secure",
        -10.234776522519383
      ],
      [
        "suspect",
        -10.234871845842669
      ],
      [
        "passing",
        -10.235014585746251
      ],
      [
        "Jesus",
        -10.236228688844653
      ],
      [
        "ourselves",
        -10.23648275048247
      ],
      [
        "evil",
        -10.236690275792972
      ],
      [
        "master",
        -10.236731129073261
      ],
      [
        "controlled",
        -10.237159536797053
      ],
      [
        "approved",
        -10.238481858292255
      ],
      [
        "Jim",
        -10.238884648988309
      ],
      [
        "university",
        -10.239168804480705
      ],
      [
        "Francisco",
        -10.239843033902536
      ],
      [
        "detail",
        -10.240029450913923
      ],
      [
        "widely",
        -10.240796673126418
      ],
      [
        "Cup",
        -10.240984957812705
      ],
      [
        "Hill",
        -10.241173798992843
      ],
      [
        "NFL",
        -10.242225808344248
      ],
      [
        "dream",
        -10.242716085136944
      ],
      [
        "factors",
        -10.243201152637264
      ],
      [
        "pattern",
        -10.243355165356467
      ],
      [
        "ordered",
        -10.243523428090842
      ],
      [
        "links",
        -10.243807517311081
      ],
      [
        "affected",
        -10.243903868763494
      ],
      [
        "perspective",
        -10.24434213577945
      ],
      [
        "apps",
        -10.246179674588934
      ],
      [
        "Project",
        -10.246671621355386
      ],
      [
        "Watch",
        -10.2471577254301
      ],
      [
        "meat",
        -10.247368914999837
      ],
      [
        "q",
        -10.247436264158678
      ],
      [
        "36",
        -10.248555776578947
      ],
      [
        "spring",
        -10.249040403684605
      ],
      [
        "wealth",
        -10.249541017932906
      ],
      [
        "considering",
        -10.250849400878181
      ],
      [
        "pair",
        -10.250892278983951
      ],
      [
        "reaction",
        -10.251036551490689
      ],
      [
        "ill",
        -10.251954588215902
      ],
      [
        "hell",
        -10.252729628978747
      ],
      [
        "confidence",
        -10.253005869382735
      ],
      [
        "bike",
        -10.253539122506567
      ],
      [
        "emergency",
        -10.25460928167195
      ],
      [
        "temperature",
        -10.256334301526676
      ],
      [
        "totally",
        -10.25653304034985
      ],
      [
        "institutions",
        -10.256546236685969
      ],
      [
        "crew",
        -10.257345588252939
      ],
      [
        "conducted",
        -10.257659144940842
      ],
      [
        "identify",
        -10.25869987596771
      ],
      [
        "Show",
        -10.25871512644094
      ],
      [
        "originally",
        -10.258752056417894
      ],
      [
        "Australian",
        -10.260791075013765
      ],
      [
        "Unfortunately",
        -10.260920537120104
      ],
      [
        "occurred",
        -10.261287586153784
      ],
      [
        "Second",
        -10.26181663788253
      ],
      [
        "browser",
        -10.261905298655336
      ],
      [
        "appearance",
        -10.262610727498618
      ],
      [
        "sky",
        -10.262928621490742
      ],
      [
        "essentially",
        -10.263863416194559
      ],
      [
        "essential",
        -10.264127925732371
      ],
      [
        "pulled",
        -10.264675156960621
      ],
      [
        "afternoon",
        -10.26500610818809
      ],
      [
        "significantly",
        -10.265798955270144
      ],
      [
        "founder",
        -10.266246784984979
      ],
      [
        "reduced",
        -10.267591150815692
      ],
      [
        "argued",
        -10.267861425713534
      ],
      [
        "expressed",
        -10.268107637112559
      ],
      [
        "enemy",
        -10.26822393123197
      ],
      [
        "proof",
        -10.269503830989462
      ],
      [
        "library",
        -10.269926810929036
      ],
      [
        "combat",
        -10.270212847903842
      ],
      [
        "grew",
        -10.27122602091147
      ],
      [
        "perform",
        -10.271956584262563
      ],
      [
        "waste",
        -10.272012438671748
      ],
      [
        "findings",
        -10.273328616584347
      ],
      [
        "stick",
        -10.273770502337504
      ],
      [
        "writes",
        -10.273817862326688
      ],
      [
        "south",
        -10.274653091134256
      ],
      [
        "34",
        -10.274698180539101
      ],
      [
        "signs",
        -10.274716741753213
      ],
      [
        "protesters",
        -10.27479347240818
      ],
      [
        "remaining",
        -10.277125753616696
      ],
      [
        "unable",
        -10.278525935551977
      ],
      [
        "consequences",
        -10.278652772857933
      ],
      [
        "picked",
        -10.278895914149652
      ],
      [
        "liberal",
        -10.2794450284924
      ],
      [
        "evening",
        -10.280084579895009
      ],
      [
        "wear",
        -10.280421832170115
      ],
      [
        "Ohio",
        -10.280648877876049
      ],
      [
        "explains",
        -10.280739744918849
      ],
      [
        "Matt",
        -10.280764361296233
      ],
      [
        "zero",
        -10.281425732161848
      ],
      [
        "colleagues",
        -10.281565285614963
      ],
      [
        "afford",
        -10.282213943836359
      ],
      [
        "breaking",
        -10.282554490878155
      ],
      [
        "warning",
        -10.28269859320371
      ],
      [
        "jump",
        -10.28405152969203
      ],
      [
        "fly",
        -10.284429671957996
      ],
      [
        "located",
        -10.2848394136777
      ],
      [
        "protests",
        -10.28607587143751
      ],
      [
        "entry",
        -10.286225392051946
      ],
      [
        "rely",
        -10.2869410229032
      ],
      [
        "talked",
        -10.286956300227445
      ],
      [
        "distribution",
        -10.287601207539499
      ],
      [
        "listen",
        -10.287723882002124
      ],
      [
        "motion",
        -10.287813502744731
      ],
      [
        "promote",
        -10.288206640986626
      ],
      [
        "blame",
        -10.288318455132323
      ],
      [
        "Next",
        -10.288984516423824
      ],
      [
        "hole",
        -10.290110221390256
      ],
      [
        "metal",
        -10.291188433281713
      ],
      [
        "gender",
        -10.2913149154889
      ],
      [
        "typically",
        -10.291664124106996
      ],
      [
        "movies",
        -10.292247364074266
      ],
      [
        "defined",
        -10.292574069759505
      ],
      [
        "doctor",
        -10.292966542144065
      ],
      [
        "copyright",
        -10.293479793698125
      ],
      [
        "connected",
        -10.293817307846274
      ],
      [
        "William",
        -10.294050450153415
      ],
      [
        "Virginia",
        -10.294447564030003
      ],
      [
        "homes",
        -10.294749516496179
      ],
      [
        "effectively",
        -10.294985160397927
      ],
      [
        "sides",
        -10.295162752865247
      ],
      [
        "teachers",
        -10.295310991083388
      ],
      [
        "classic",
        -10.295598624144816
      ],
      [
        "classes",
        -10.295944268078413
      ],
      [
        "Hall",
        -10.29597381785263
      ],
      [
        "fail",
        -10.296939805613729
      ],
      [
        "mistake",
        -10.296952940863484
      ],
      [
        "AP",
        -10.297315894073211
      ],
      [
        "Dan",
        -10.297612241175
      ],
      [
        "terrorist",
        -10.298260849850083
      ],
      [
        "Defense",
        -10.299120841744662
      ],
      [
        "cutting",
        -10.299270361738593
      ],
      [
        "tiny",
        -10.299458441462207
      ],
      [
        "warned",
        -10.299473853784008
      ],
      [
        "denied",
        -10.299819205292009
      ],
      [
        "Any",
        -10.30049953460383
      ],
      [
        "Force",
        -10.30075498503747
      ],
      [
        "decline",
        -10.300776466555433
      ],
      [
        "Toronto",
        -10.30295917234215
      ],
      [
        "transfer",
        -10.303348529571556
      ],
      [
        "married",
        -10.303621300932571
      ],
      [
        "flow",
        -10.30365239840661
      ],
      [
        "combined",
        -10.304352710675596
      ],
      [
        "square",
        -10.305680672179063
      ],
      [
        "creative",
        -10.306532644609302
      ],
      [
        "Thanks",
        -10.307503446660892
      ],
      [
        "cycle",
        -10.308436587555763
      ],
      [
        "hundred",
        -10.308444826566246
      ],
      [
        "friendly",
        -10.309708874509404
      ],
      [
        "votes",
        -10.311261090203217
      ],
      [
        "fill",
        -10.311270014356797
      ],
      [
        "contains",
        -10.311444307109655
      ],
      [
        "unemployment",
        -10.312268766129293
      ],
      [
        "merely",
        -10.312929521158784
      ],
      [
        "surprised",
        -10.313222232347456
      ],
      [
        "marketing",
        -10.313632965786073
      ],
      [
        "load",
        -10.313672681328837
      ],
      [
        "proper",
        -10.31377583806025
      ],
      [
        "finish",
        -10.314342617373542
      ],
      [
        "Click",
        -10.315003231401452
      ],
      [
        "tested",
        -10.3152723706357
      ],
      [
        "necessarily",
        -10.31545102766611
      ],
      [
        "shop",
        -10.315452949851606
      ],
      [
        "driven",
        -10.315504121660185
      ],
      [
        "YouTube",
        -10.31660516285752
      ],
      [
        "Home",
        -10.316926619600984
      ],
      [
        "walking",
        -10.318834553028886
      ],
      [
        "conduct",
        -10.319349958156144
      ],
      [
        "loved",
        -10.320612857272478
      ],
      [
        "grown",
        -10.320641642284311
      ],
      [
        "numerous",
        -10.321564999323295
      ],
      [
        "weapon",
        -10.321660517718298
      ],
      [
        "definition",
        -10.322601629916836
      ],
      [
        "frame",
        -10.322673193730553
      ],
      [
        "units",
        -10.32271805107423
      ],
      [
        "album",
        -10.322943685922029
      ],
      [
        "plane",
        -10.323004123232874
      ],
      [
        "minimum",
        -10.323166327386499
      ],
      [
        "()",
        -10.323647304787562
      ],
      [
        "declared",
        -10.323711331187726
      ],
      [
        "supporting",
        -10.324125232370015
      ],
      [
        "excellent",
        -10.324359913980379
      ],
      [
        "expert",
        -10.324424499978333
      ],
      [
        "mix",
        -10.325709836110033
      ],
      [
        "session",
        -10.326505503927043
      ],
      [
        "drink",
        -10.327286114887048
      ],
      [
        "neither",
        -10.328477248341711
      ],
      [
        "folks",
        -10.328716760726135
      ],
      [
        "Source",
        -10.32945479540375
      ],
      [
        "glass",
        -10.329948024051097
      ],
      [
        "remained",
        -10.33000549044673
      ],
      [
        "infrastructure",
        -10.331230117848635
      ],
      [
        "Three",
        -10.331527242179062
      ],
      [
        "defensive",
        -10.332152131271148
      ],
      [
        "wise",
        -10.33270322140637
      ],
      [
        "cheap",
        -10.332898312782614
      ],
      [
        "differences",
        -10.333075713151773
      ],
      [
        "agents",
        -10.334091114702863
      ],
      [
        "guilty",
        -10.334602688585726
      ],
      [
        "crimes",
        -10.335663949465197
      ],
      [
        "minor",
        -10.335852303996045
      ],
      [
        "anyway",
        -10.335898744116896
      ],
      [
        "Bob",
        -10.336998457224542
      ],
      [
        "doctors",
        -10.338012927025272
      ],
      [
        "surveillance",
        -10.339495817771526
      ],
      [
        "voted",
        -10.339642241182473
      ],
      [
        "string",
        -10.340362218302483
      ],
      [
        "script",
        -10.341005024454555
      ],
      [
        "flat",
        -10.34277160111605
      ],
      [
        "advanced",
        -10.343076922594
      ],
      [
        "sentence",
        -10.343164719200281
      ],
      [
        "starts",
        -10.343389188193884
      ],
      [
        "Rights",
        -10.343635477185565
      ],
      [
        "governor",
        -10.343894700877298
      ],
      [
        "dealing",
        -10.344081756060188
      ],
      [
        "Lord",
        -10.344439686201003
      ],
      [
        "properly",
        -10.344556878450174
      ],
      [
        "48",
        -10.345069190630861
      ],
      [
        "materials",
        -10.345125338654007
      ],
      [
        "describe",
        -10.346154939927112
      ],
      [
        "boys",
        -10.346262688832484
      ],
      [
        "Best",
        -10.34641579368333
      ],
      [
        "Iranian",
        -10.346419307941899
      ],
      [
        "revolution",
        -10.346731595772996
      ],
      [
        "Men",
        -10.34680922246409
      ],
      [
        "replace",
        -10.34735324847702
      ],
      [
        "fundamental",
        -10.347729050945082
      ],
      [
        "warming",
        -10.34787665637346
      ],
      [
        "applied",
        -10.348033186601116
      ],
      [
        "unlikely",
        -10.348045265306222
      ],
      [
        "accepted",
        -10.348104152447432
      ],
      [
        "Energy",
        -10.348226970579018
      ],
      [
        "Top",
        -10.34837787677652
      ],
      [
        "anywhere",
        -10.348581897873288
      ],
      [
        "vice",
        -10.348853878579188
      ],
      [
        "Andrew",
        -10.349117787559644
      ],
      [
        "noticed",
        -10.349346091654926
      ],
      [
        "combination",
        -10.349381921139559
      ],
      [
        "El",
        -10.3498655056895
      ],
      [
        "expression",
        -10.350471512374822
      ],
      [
        "Jews",
        -10.3510408259467
      ],
      [
        "opposite",
        -10.351411694160374
      ],
      [
        "kid",
        -10.352210514307666
      ],
      [
        "patient",
        -10.352272922510645
      ],
      [
        "assume",
        -10.352949788071713
      ],
      [
        "port",
        -10.35302557959769
      ],
      [
        "element",
        -10.353468696598881
      ],
      [
        "defend",
        -10.353730448468141
      ],
      [
        "centre",
        -10.354107247919007
      ],
      [
        "plays",
        -10.354959944865822
      ],
      [
        "wave",
        -10.355288178054186
      ],
      [
        "District",
        -10.355463825203076
      ],
      [
        "teaching",
        -10.35592295229499
      ],
      [
        "criticism",
        -10.357942803864352
      ],
      [
        "suffered",
        -10.358018533920312
      ],
      [
        "suffering",
        -10.358340179463024
      ],
      [
        "expense",
        -10.358372684237446
      ],
      [
        "crazy",
        -10.358657736313136
      ],
      [
        "Thank",
        -10.358757419217316
      ],
      [
        "manner",
        -10.359310289992422
      ],
      [
        "extent",
        -10.359422518933721
      ],
      [
        "Power",
        -10.36021965982816
      ],
      [
        "pop",
        -10.360305429357027
      ],
      [
        "feels",
        -10.360983247838112
      ],
      [
        "cap",
        -10.361080542826684
      ],
      [
        "authors",
        -10.361124769747315
      ],
      [
        "38",
        -10.36263695850592
      ],
      [
        "efficient",
        -10.363099583163756
      ],
      [
        "37",
        -10.363172223156855
      ],
      [
        "causes",
        -10.36338543738445
      ],
      [
        "contain",
        -10.363803482701053
      ],
      [
        "faced",
        -10.364292742588155
      ],
      [
        "output",
        -10.36516051717217
      ],
      [
        "storage",
        -10.365616163533652
      ],
      [
        "roughly",
        -10.365920998314289
      ],
      [
        "150",
        -10.366045942220051
      ],
      [
        "deliver",
        -10.36716987549702
      ],
      [
        "Have",
        -10.367333975163845
      ],
      [
        "Carolina",
        -10.367506067838487
      ],
      [
        "customer",
        -10.368363106678652
      ],
      [
        "Colorado",
        -10.368782065370542
      ],
      [
        "seconds",
        -10.369117396978869
      ],
      [
        "investors",
        -10.37038662193429
      ],
      [
        "ride",
        -10.370567731493104
      ],
      [
        "Finally",
        -10.371476760853003
      ],
      [
        "teacher",
        -10.371670891937605
      ],
      [
        "Which",
        -10.371937766061432
      ],
      [
        "Such",
        -10.372806948254325
      ],
      [
        "somewhat",
        -10.373136872420332
      ],
      [
        "evolution",
        -10.373358977562171
      ],
      [
        "trend",
        -10.373521847084294
      ],
      [
        "feed",
        -10.373615744577881
      ],
      [
        "alcohol",
        -10.373718038037465
      ],
      [
        "historical",
        -10.373728789546062
      ],
      [
        "serving",
        -10.374432502267348
      ],
      [
        "brief",
        -10.37455980134118
      ],
      [
        "PM",
        -10.37585003917525
      ],
      [
        "challenges",
        -10.376034412634434
      ],
      [
        "Indeed",
        -10.376524466008659
      ],
      [
        "attempts",
        -10.377055976950324
      ],
      [
        "Jack",
        -10.377149538999923
      ],
      [
        "DNA",
        -10.377451594141332
      ],
      [
        "reporters",
        -10.377606634302131
      ],
      [
        "industrial",
        -10.377884068124123
      ],
      [
        "everybody",
        -10.378531967674489
      ],
      [
        "item",
        -10.37858701843887
      ],
      [
        "wild",
        -10.37862763957912
      ],
      [
        "programming",
        -10.378691758462393
      ],
      [
        "recorded",
        -10.378809644403036
      ],
      [
        "talent",
        -10.379152581847586
      ],
      [
        "Nation",
        -10.379328260297477
      ],
      [
        "excited",
        -10.379718875384466
      ],
      [
        "topic",
        -10.380074948793466
      ],
      [
        "55",
        -10.380641488380913
      ],
      [
        "protected",
        -10.381958101956034
      ],
      [
        "Part",
        -10.382956524550597
      ],
      [
        "harm",
        -10.38322572966117
      ],
      [
        "Ron",
        -10.384185631663739
      ],
      [
        "detailed",
        -10.384340797230298
      ],
      [
        "usual",
        -10.384411991348097
      ],
      [
        "64",
        -10.384454700262184
      ],
      [
        "relevant",
        -10.384885535084784
      ],
      [
        "publicly",
        -10.38589635142546
      ],
      [
        "Thus",
        -10.386137430361558
      ],
      [
        "injured",
        -10.386270781959771
      ],
      [
        "harder",
        -10.38693554820807
      ],
      [
        "42",
        -10.387285498032508
      ],
      [
        "messages",
        -10.38746034137079
      ],
      [
        "carrying",
        -10.388311739538482
      ],
      [
        "guide",
        -10.388671779529453
      ],
      [
        "roll",
        -10.3887543837877
      ],
      [
        "Islamic",
        -10.389435842683929
      ],
      [
        "fixed",
        -10.389606693064152
      ],
      [
        "loan",
        -10.389925320278065
      ],
      [
        "Tim",
        -10.390113914124392
      ],
      [
        "license",
        -10.39017715073316
      ],
      [
        "Up",
        -10.390349065535139
      ],
      [
        "guard",
        -10.39056868245432
      ],
      [
        "Williams",
        -10.390718456015833
      ],
      [
        "offense",
        -10.391005807463314
      ],
      [
        "3D",
        -10.391094907544575
      ],
      [
        "treat",
        -10.391455180993756
      ],
      [
        "articles",
        -10.39216003475718
      ],
      [
        "strange",
        -10.392279993004921
      ],
      [
        "discussed",
        -10.39240047116612
      ],
      [
        "heavily",
        -10.392438549576957
      ],
      [
        "mouth",
        -10.392485008781971
      ],
      [
        "artist",
        -10.392644415898204
      ],
      [
        "reasonable",
        -10.392743266930408
      ],
      [
        "immediate",
        -10.393402231151269
      ],
      [
        "circumstances",
        -10.393484088707927
      ],
      [
        "listed",
        -10.394114981396452
      ],
      [
        "Did",
        -10.394693115879276
      ],
      [
        "relations",
        -10.394704817854015
      ],
      [
        "leads",
        -10.39473617934597
      ],
      [
        "fiscal",
        -10.395470999966895
      ],
      [
        "native",
        -10.395599666805255
      ],
      [
        "admitted",
        -10.396846962912852
      ],
      [
        "Chief",
        -10.397303359978698
      ],
      [
        "ring",
        -10.397791246018384
      ],
      [
        "advance",
        -10.398333764031094
      ],
      [
        "database",
        -10.398368510025982
      ],
      [
        "typical",
        -10.399229197668799
      ],
      [
        "visual",
        -10.399504649831888
      ],
      [
        "Catholic",
        -10.400050662048967
      ],
      [
        "fewer",
        -10.40015421932263
      ],
      [
        "route",
        -10.400420423316605
      ],
      [
        "pool",
        -10.400784526201855
      ],
      [
        "Director",
        -10.401824227702088
      ],
      [
        "functions",
        -10.402848954552745
      ],
      [
        "Constitution",
        -10.403036172082535
      ],
      [
        "warm",
        -10.40312950919958
      ],
      [
        "Professor",
        -10.404049681829587
      ],
      [
        "coffee",
        -10.404225542481342
      ],
      [
        "networks",
        -10.404363303758668
      ],
      [
        "chain",
        -10.404639277142962
      ],
      [
        "install",
        -10.405318937995048
      ],
      [
        "Arizona",
        -10.405917616171752
      ],
      [
        "Christmas",
        -10.405948464180899
      ],
      [
        "DC",
        -10.405957795215683
      ],
      [
        "wake",
        -10.406391648014594
      ],
      [
        "switch",
        -10.40757421747673
      ],
      [
        "stress",
        -10.407810993827544
      ],
      [
        "shoot",
        -10.407941980260734
      ],
      [
        "ancient",
        -10.40803151306283
      ],
      [
        "scheduled",
        -10.408665435850063
      ],
      [
        "suicide",
        -10.410070122056728
      ],
      [
        "signal",
        -10.410254889475093
      ],
      [
        "explanation",
        -10.410577122148073
      ],
      [
        "Gaza",
        -10.410864200796556
      ],
      [
        "poverty",
        -10.410890714445923
      ],
      [
        "opportunities",
        -10.410945947208035
      ],
      [
        "izing",
        -10.411468094662093
      ],
      [
        "bound",
        -10.411751430139818
      ],
      [
        "Korean",
        -10.412068802098425
      ],
      [
        "plastic",
        -10.412072757790844
      ],
      [
        "importance",
        -10.412911387650823
      ],
      [
        "announcement",
        -10.413131867186621
      ],
      [
        "lay",
        -10.41324188096346
      ],
      [
        "delivered",
        -10.413415836049074
      ],
      [
        "Michigan",
        -10.413627922464366
      ],
      [
        "bomb",
        -10.413802427975389
      ],
      [
        "ongoing",
        -10.413888458165117
      ],
      [
        "Frank",
        -10.41393780317988
      ],
      [
        "stands",
        -10.414483882747103
      ],
      [
        "consistent",
        -10.414935892450256
      ],
      [
        "chairman",
        -10.415150897864768
      ],
      [
        "Long",
        -10.415159532159
      ],
      [
        "declined",
        -10.415426369216465
      ],
      [
        "youth",
        -10.416886068973193
      ],
      [
        "nations",
        -10.417636293653622
      ],
      [
        "immigration",
        -10.417671269595317
      ],
      [
        "volume",
        -10.419529287831399
      ],
      [
        "stood",
        -10.420202889147498
      ],
      [
        "interface",
        -10.42025227100361
      ],
      [
        "arguments",
        -10.421332821483414
      ],
      [
        "promise",
        -10.421797107243226
      ],
      [
        "miss",
        -10.421802036914537
      ],
      [
        "formed",
        -10.422312072842669
      ],
      [
        "causing",
        -10.422574140083047
      ],
      [
        "represents",
        -10.422961005916054
      ],
      [
        "yards",
        -10.423179201765405
      ],
      [
        "gap",
        -10.42318720287
      ],
      [
        "disaster",
        -10.423449174742913
      ],
      [
        "suddenly",
        -10.424918270994793
      ],
      [
        "closely",
        -10.425723084235116
      ],
      [
        "acting",
        -10.426391454749613
      ],
      [
        "herself",
        -10.426777902736328
      ],
      [
        "improved",
        -10.426943220479902
      ],
      [
        "adult",
        -10.426971205921774
      ],
      [
        "hopes",
        -10.426978088592543
      ],
      [
        "mainstream",
        -10.428062991964707
      ],
      [
        "constant",
        -10.428139397679612
      ],
      [
        "responded",
        -10.428253508198509
      ],
      [
        "pushed",
        -10.42840411304923
      ],
      [
        "completed",
        -10.429229447150583
      ],
      [
        "manage",
        -10.429664144027964
      ],
      [
        "matters",
        -10.429722989037515
      ],
      [
        "Board",
        -10.429751463237592
      ],
      [
        "missed",
        -10.430201519913766
      ],
      [
        "controversial",
        -10.430490842638994
      ],
      [
        "recovery",
        -10.431553574258908
      ],
      [
        "Eric",
        -10.432071212738126
      ],
      [
        "Asia",
        -10.434486056740635
      ],
      [
        "Inc",
        -10.434696654654068
      ],
      [
        "expansion",
        -10.435871082678803
      ],
      [
        "taste",
        -10.436477746641968
      ],
      [
        "funded",
        -10.436686988648972
      ],
      [
        "atmosphere",
        -10.437304586218305
      ],
      [
        "",
        -10.437551109212103
      ],
      [
        "adds",
        -10.437590738661902
      ],
      [
        "sport",
        -10.43764115166117
      ],
      [
        "guns",
        -10.438112416716605
      ],
      [
        "leaves",
        -10.43816285247519
      ],
      [
        "log",
        -10.43897734444267
      ],
      [
        "backed",
        -10.44056245136048
      ],
      [
        "vehicles",
        -10.440592383290083
      ],
      [
        "recognize",
        -10.441216352530715
      ],
      [
        "inspired",
        -10.44140982984395
      ],
      [
        "communication",
        -10.441491511786014
      ],
      [
        "sugar",
        -10.441621793881563
      ],
      [
        "equivalent",
        -10.442403427331941
      ],
      [
        "Fed",
        -10.442837103460242
      ],
      [
        "realized",
        -10.442877904248807
      ],
      [
        "scheme",
        -10.443554478440083
      ],
      [
        "frequently",
        -10.443602327385719
      ],
      [
        "Update",
        -10.444691663621564
      ],
      [
        "relative",
        -10.44482939699923
      ],
      [
        "empty",
        -10.445260866534682
      ],
      [
        "terrorism",
        -10.44595537746218
      ],
      [
        "split",
        -10.44612694725089
      ],
      [
        "Blue",
        -10.44662140079857
      ],
      [
        "currency",
        -10.446784947365748
      ],
      [
        "random",
        -10.44685565023679
      ],
      [
        "stream",
        -10.447591647228894
      ],
      [
        "danger",
        -10.447837583423757
      ],
      [
        "Island",
        -10.448005471717712
      ],
      [
        "assets",
        -10.448075925656651
      ],
      [
        "Jackson",
        -10.44893498382844
      ],
      [
        "Make",
        -10.449633174790899
      ],
      [
        "emotional",
        -10.450074570357259
      ],
      [
        "47",
        -10.450539100439949
      ],
      [
        "increases",
        -10.450578123117264
      ],
      [
        "adults",
        -10.45115243245768
      ],
      [
        "council",
        -10.451431531766556
      ],
      [
        "cloud",
        -10.452809159202051
      ],
      [
        "practices",
        -10.453226177821954
      ],
      [
        "hoping",
        -10.453431570008952
      ],
      [
        "nearby",
        -10.45343390732374
      ],
      [
        "awesome",
        -10.45345962659251
      ],
      [
        "Check",
        -10.454395769251756
      ],
      [
        "consumption",
        -10.45542268363238
      ],
      [
        "bunch",
        -10.455942185612141
      ],
      [
        "pushing",
        -10.456307258820141
      ],
      [
        "worker",
        -10.45672118217555
      ],
      [
        "Use",
        -10.456894279270674
      ],
      [
        "44",
        -10.457092948687697
      ],
      [
        "bag",
        -10.457451081022686
      ],
      [
        "knowing",
        -10.458299368485923
      ],
      [
        "electricity",
        -10.458663089032163
      ],
      [
        "Jan",
        -10.458857994100578
      ],
      [
        "somehow",
        -10.459578665397133
      ],
      [
        "agenda",
        -10.459657481266552
      ],
      [
        "lawsuit",
        -10.459768419447405
      ],
      [
        "600",
        -10.459785272650576
      ],
      [
        "occur",
        -10.46025884596628
      ],
      [
        "NSA",
        -10.460601440843904
      ],
      [
        "deeply",
        -10.461209945605619
      ],
      [
        "raising",
        -10.462233264481615
      ],
      [
        "sought",
        -10.46294821091383
      ],
      [
        "escape",
        -10.463069070173933
      ],
      [
        "Charles",
        -10.463284072966362
      ],
      [
        "requirements",
        -10.463365997088873
      ],
      [
        "watched",
        -10.464169260363377
      ],
      [
        "encourage",
        -10.464846890822502
      ],
      [
        "800",
        -10.465699463237627
      ],
      [
        "250",
        -10.465909883691069
      ],
      [
        "OK",
        -10.466075737594617
      ],
      [
        "weak",
        -10.466365890219636
      ],
      [
        "\\",
        -10.467265883798788
      ],
      [
        "=\"",
        -10.467478933138167
      ],
      [
        "faces",
        -10.46762473064804
      ],
      [
        "entered",
        -10.467847606334454
      ],
      [
        "Women",
        -10.4681843305147
      ],
      [
        "39",
        -10.468405990329064
      ],
      [
        "Among",
        -10.468418274732631
      ],
      [
        "depth",
        -10.468507586016196
      ],
      [
        "rescue",
        -10.468606242345457
      ],
      [
        "aircraft",
        -10.470256104791694
      ],
      [
        "Agency",
        -10.470740440784981
      ],
      [
        "drawn",
        -10.471129639767481
      ],
      [
        "perfectly",
        -10.471519555141539
      ],
      [
        "electronic",
        -10.471534209628603
      ],
      [
        "stores",
        -10.47291998745263
      ],
      [
        "reader",
        -10.472983550595703
      ],
      [
        "slowly",
        -10.473184885592131
      ],
      [
        "commitment",
        -10.473464217433737
      ],
      [
        "understood",
        -10.473557970858732
      ],
      [
        "positions",
        -10.473587214267367
      ],
      [
        "targeted",
        -10.474437183078686
      ],
      [
        "allies",
        -10.4750786438284
      ],
      [
        "injuries",
        -10.475874482761006
      ],
      [
        "welcome",
        -10.475907220579963
      ],
      [
        "wage",
        -10.476583649154392
      ],
      [
        "latter",
        -10.477319916264712
      ],
      [
        "Senator",
        -10.477679166290269
      ],
      [
        "literally",
        -10.478334107757453
      ],
      [
        "fraud",
        -10.478602186703796
      ],
      [
        "reportedly",
        -10.479218035714668
      ],
      [
        "videos",
        -10.47938472578753
      ],
      [
        "survive",
        -10.480167471521447
      ],
      [
        "gaming",
        -10.48071071234271
      ],
      [
        "sample",
        -10.480896399988552
      ],
      [
        "performed",
        -10.481055863607834
      ],
      [
        "65",
        -10.481717146057775
      ],
      [
        "bear",
        -10.48172024946599
      ],
      [
        "Stephen",
        -10.483293400381502
      ],
      [
        "cable",
        -10.483542844617661
      ],
      [
        "collapse",
        -10.483734357180413
      ],
      [
        "exact",
        -10.483952675671935
      ],
      [
        "Loading",
        -10.48413779114778
      ],
      [
        "River",
        -10.484582540150965
      ],
      [
        "somewhere",
        -10.484692208098249
      ],
      [
        "lock",
        -10.48518233515844
      ],
      [
        "tend",
        -10.485341460270604
      ],
      [
        "exposed",
        -10.485389550637056
      ],
      [
        "begins",
        -10.48547194884053
      ],
      [
        "receiving",
        -10.486535916957676
      ],
      [
        "Ireland",
        -10.487301726262894
      ],
      [
        "Society",
        -10.488276781125554
      ],
      [
        "updated",
        -10.48840328928043
      ],
      [
        "select",
        -10.488427570771238
      ],
      [
        "acts",
        -10.488711894949205
      ],
      [
        "blow",
        -10.488757329351952
      ],
      [
        "advertising",
        -10.488773599501123
      ],
      [
        "initially",
        -10.489372561588509
      ],
      [
        "approval",
        -10.49094697857722
      ],
      [
        "winter",
        -10.491977811410914
      ],
      [
        "comfortable",
        -10.492040961746302
      ],
      [
        "reveal",
        -10.49217888201121
      ],
      [
        "valuable",
        -10.492186084320629
      ],
      [
        "custom",
        -10.492313415362597
      ],
      [
        "Amendment",
        -10.492348909318988
      ],
      [
        "films",
        -10.492637695224332
      ],
      [
        "channel",
        -10.493113358042722
      ],
      [
        "headed",
        -10.49329441897487
      ],
      [
        "helps",
        -10.493480323704205
      ],
      [
        "drinking",
        -10.493862587933302
      ],
      [
        "falling",
        -10.495023573524412
      ],
      [
        "Alex",
        -10.495541288361306
      ],
      [
        "signing",
        -10.496098244331593
      ],
      [
        "allegedly",
        -10.49613917330423
      ],
      [
        "clients",
        -10.496638104203635
      ],
      [
        "proud",
        -10.49680685980843
      ],
      [
        "younger",
        -10.497131195931908
      ],
      [
        "properties",
        -10.497312112666746
      ],
      [
        "bridge",
        -10.497936123532849
      ],
      [
        "Young",
        -10.498017748367351
      ],
      [
        "developer",
        -10.49813253005787
      ],
      [
        "conclusion",
        -10.498586841773566
      ],
      [
        "Sometimes",
        -10.498721650765393
      ],
      [
        "principle",
        -10.49940081914852
      ],
      [
        "forget",
        -10.499444026117269
      ],
      [
        "Mitt",
        -10.49952681795189
      ],
      [
        "struck",
        -10.49990678077463
      ],
      [
        "generate",
        -10.500011616827527
      ],
      [
        "makers",
        -10.500404714857744
      ],
      [
        "solve",
        -10.501486846158036
      ],
      [
        "crash",
        -10.50188902793558
      ],
      [
        "upper",
        -10.501932193717147
      ],
      [
        "destroy",
        -10.502390125186395
      ],
      [
        "follows",
        -10.502512190863609
      ],
      [
        "thank",
        -10.50293624993073
      ],
      [
        "Brian",
        -10.50301573790884
      ],
      [
        "radical",
        -10.503155213693578
      ],
      [
        "unknown",
        -10.503329827787752
      ],
      [
        "dedicated",
        -10.504031025729608
      ],
      [
        "format",
        -10.504034644625252
      ],
      [
        "Follow",
        -10.504036406430032
      ],
      [
        "statements",
        -10.504696742064368
      ],
      [
        "competitive",
        -10.505024653434674
      ],
      [
        "urban",
        -10.505581544256444
      ],
      [
        "walked",
        -10.506202366343098
      ],
      [
        "facility",
        -10.506319951007315
      ],
      [
        "41",
        -10.50692409402517
      ],
      [
        "Policy",
        -10.50697592254602
      ],
      [
        "ingly",
        -10.506996090700707
      ],
      [
        "nobody",
        -10.50700414984651
      ],
      [
        "limits",
        -10.507395190812932
      ],
      [
        "personally",
        -10.50783829051401
      ],
      [
        "secretary",
        -10.508057048516198
      ],
      [
        "Spain",
        -10.508360038424545
      ],
      [
        "strongly",
        -10.50851164631479
      ],
      [
        "iPad",
        -10.50855522725389
      ],
      [
        "prefer",
        -10.508967396998194
      ],
      [
        "accurate",
        -10.509033524044284
      ],
      [
        "comparison",
        -10.50950215963096
      ],
      [
        "communications",
        -10.509507150950157
      ],
      [
        "Sam",
        -10.510196884645811
      ],
      [
        "thousand",
        -10.510865899118327
      ],
      [
        "participants",
        -10.512162968177613
      ],
      [
        "surrounding",
        -10.513284055985661
      ],
      [
        "System",
        -10.51341619687147
      ],
      [
        "Games",
        -10.513821000358114
      ],
      [
        "handed",
        -10.514188382527987
      ],
      [
        "recommend",
        -10.514389818711734
      ],
      [
        "suffer",
        -10.515038416849364
      ],
      [
        "transition",
        -10.515697337455775
      ],
      [
        "techniques",
        -10.516564449069039
      ],
      [
        "employment",
        -10.516839491914432
      ],
      [
        "spirit",
        -10.518131559504548
      ],
      [
        "leg",
        -10.51821764436342
      ],
      [
        "plot",
        -10.520229931094088
      ],
      [
        "gotten",
        -10.52056406406585
      ],
      [
        "cup",
        -10.521655939678391
      ],
      [
        "worried",
        -10.521797647967155
      ],
      [
        "replaced",
        -10.522168671514411
      ],
      [
        "audio",
        -10.522227543369377
      ],
      [
        "loans",
        -10.522293454247583
      ],
      [
        "expand",
        -10.522615318683163
      ],
      [
        "sending",
        -10.522631750719652
      ],
      [
        "Story",
        -10.522640385892105
      ],
      [
        "fashion",
        -10.522781935587103
      ],
      [
        "technologies",
        -10.522871347832956
      ],
      [
        "destroyed",
        -10.524167488746667
      ],
      [
        "extended",
        -10.524225943819498
      ],
      [
        "hotel",
        -10.524290576574222
      ],
      [
        "accident",
        -10.524372439937057
      ],
      [
        "informed",
        -10.524402502414503
      ],
      [
        "organized",
        -10.524688382357436
      ],
      [
        "heads",
        -10.524702945088084
      ],
      [
        "employee",
        -10.525279898598345
      ],
      [
        "crucial",
        -10.526334778709275
      ],
      [
        "chair",
        -10.528076473303965
      ],
      [
        "democratic",
        -10.52815841242544
      ],
      [
        "resistance",
        -10.528383145488569
      ],
      [
        "corporations",
        -10.528541640752291
      ],
      [
        "repeatedly",
        -10.528913496194015
      ],
      [
        "examples",
        -10.529137293796232
      ],
      [
        "generated",
        -10.529550857384391
      ],
      [
        "computers",
        -10.530118430703956
      ],
      [
        "island",
        -10.530294764527646
      ],
      [
        "Soviet",
        -10.530503274373274
      ],
      [
        "earned",
        -10.530670435044774
      ],
      [
        "Does",
        -10.531134817381677
      ],
      [
        "Kevin",
        -10.531446558890412
      ],
      [
        "angry",
        -10.531825811333242
      ],
      [
        "honest",
        -10.532238125657969
      ],
      [
        "installed",
        -10.532253933310091
      ],
      [
        "inch",
        -10.532262404350359
      ],
      [
        "claiming",
        -10.532644141305274
      ],
      [
        "elsewhere",
        -10.532941566625095
      ],
      [
        "severe",
        -10.534823900038031
      ],
      [
        "Islam",
        -10.534914477566431
      ],
      [
        "auto",
        -10.534976761808919
      ],
      [
        "worldwide",
        -10.535108144159395
      ],
      [
        "Daniel",
        -10.535954927313869
      ],
      [
        "relationships",
        -10.536766283636432
      ],
      [
        "hidden",
        -10.537602992292712
      ],
      [
        "chose",
        -10.537900810112644
      ],
      [
        "trillion",
        -10.538217599684131
      ],
      [
        "exciting",
        -10.538764141595262
      ],
      [
        "95",
        -10.538971429634024
      ],
      [
        "01",
        -10.539082572323705
      ],
      [
        "ruled",
        -10.539243568107977
      ],
      [
        "west",
        -10.539317245824705
      ],
      [
        "machines",
        -10.539605532713646
      ],
      [
        "Fire",
        -10.539978641705446
      ],
      [
        "division",
        -10.540099110151974
      ],
      [
        "academic",
        -10.540743416695808
      ],
      [
        "//",
        -10.540807727873071
      ],
      [
        "impressive",
        -10.541271488204837
      ],
      [
        "restaurant",
        -10.542151161188311
      ],
      [
        "involving",
        -10.542175789876481
      ],
      [
        "Greek",
        -10.542929989661591
      ],
      [
        "producing",
        -10.542938329143256
      ],
      [
        "Qaeda",
        -10.543754133586203
      ],
      [
        "Saudi",
        -10.545224180634488
      ],
      [
        "Given",
        -10.54566357846756
      ],
      [
        "brings",
        -10.545762273751192
      ],
      [
        "partners",
        -10.545844398483613
      ],
      [
        "versions",
        -10.54594533768381
      ],
      [
        "attacked",
        -10.546219442883903
      ],
      [
        "Live",
        -10.546328372555287
      ],
      [
        "continuing",
        -10.546440551561057
      ],
      [
        "allegations",
        -10.547049412303389
      ],
      [
        "maximum",
        -10.547946152881085
      ],
      [
        "Ford",
        -10.548309527126905
      ],
      [
        "holds",
        -10.548372548947722
      ],
      [
        "Italy",
        -10.548620803809325
      ],
      [
        "recession",
        -10.54910768944493
      ],
      [
        "village",
        -10.549988688129469
      ],
      [
        "threats",
        -10.550244434800822
      ],
      [
        "ities",
        -10.550696463618394
      ],
      [
        "43",
        -10.552015017029532
      ],
      [
        "1999",
        -10.552586854623277
      ],
      [
        "schedule",
        -10.55266234199809
      ],
      [
        "Old",
        -10.554251597251245
      ],
      [
        "49",
        -10.5544852410238
      ],
      [
        "journal",
        -10.554703498604699
      ],
      [
        "technique",
        -10.55490375489308
      ],
      [
        "Using",
        -10.555049976508814
      ],
      [
        "electric",
        -10.555280447915099
      ],
      [
        "Grand",
        -10.555420319939714
      ],
      [
        "journalists",
        -10.55556830811381
      ],
      [
        "pace",
        -10.556210510436944
      ],
      [
        "constantly",
        -10.55696741024924
      ],
      [
        "emissions",
        -10.557611254599369
      ],
      [
        "Davis",
        -10.557830570437888
      ],
      [
        "exists",
        -10.558069508876894
      ],
      [
        "broadcast",
        -10.558556919874
      ],
      [
        "observed",
        -10.55861931676602
      ],
      [
        "approximately",
        -10.558660024137694
      ],
      [
        "pure",
        -10.558764312644854
      ],
      [
        "ling",
        -10.558816107863052
      ],
      [
        "funny",
        -10.558910691529832
      ],
      [
        "edit",
        -10.55896899197566
      ],
      [
        "battery",
        -10.55921519107719
      ],
      [
        "promised",
        -10.55936627897526
      ],
      [
        "Code",
        -10.559658171568687
      ],
      [
        "winner",
        -10.559669406571448
      ],
      [
        "duty",
        -10.560182137481597
      ],
      [
        "graduate",
        -10.560357541825033
      ],
      [
        "finance",
        -10.560607375609036
      ],
      [
        "studio",
        -10.561188257837566
      ],
      [
        "threatened",
        -10.561596240977966
      ],
      [
        "engage",
        -10.56374478176963
      ],
      [
        "Detroit",
        -10.563770288521013
      ],
      [
        "inflation",
        -10.563949092353157
      ],
      [
        "kick",
        -10.56406514877869
      ],
      [
        "Without",
        -10.564197831702623
      ],
      [
        "Adam",
        -10.565088857756223
      ],
      [
        "terrible",
        -10.565727011294918
      ],
      [
        "Lake",
        -10.566716874323502
      ],
      [
        "surprising",
        -10.56693163602135
      ],
      [
        "regulations",
        -10.567344015355538
      ],
      [
        "narrow",
        -10.567577276894284
      ],
      [
        "critics",
        -10.567774759327808
      ],
      [
        "commission",
        -10.567794993907892
      ],
      [
        "letters",
        -10.568694129431785
      ],
      [
        "Data",
        -10.568724477608441
      ],
      [
        "grand",
        -10.569386038357935
      ],
      [
        "notion",
        -10.569519588077174
      ],
      [
        "Book",
        -10.570686359058161
      ],
      [
        "destruction",
        -10.57075624231715
      ],
      [
        "trees",
        -10.57112701037108
      ],
      [
        "Miller",
        -10.571591590344205
      ],
      [
        "rejected",
        -10.57171685131023
      ],
      [
        "Mars",
        -10.571857829283314
      ],
      [
        "operate",
        -10.571931875372501
      ],
      [
        "exposure",
        -10.571977083778922
      ],
      [
        "stuck",
        -10.572036880765499
      ],
      [
        "artists",
        -10.57246213228532
      ],
      [
        "milk",
        -10.572747742244099
      ],
      [
        "sister",
        -10.573500292423567
      ],
      [
        "thoughts",
        -10.573828326609938
      ],
      [
        "anger",
        -10.57419041428978
      ],
      [
        "Foreign",
        -10.574231739270312
      ],
      [
        "automatically",
        -10.574449124344278
      ],
      [
        "Look",
        -10.574515174161897
      ],
      [
        "46",
        -10.574678761823506
      ],
      [
        "Hollywood",
        -10.574774480743573
      ],
      [
        "visible",
        -10.575361674567683
      ],
      [
        "Global",
        -10.575526324973465
      ],
      [
        "lawyers",
        -10.575571674645794
      ],
      [
        "boost",
        -10.575623644103283
      ],
      [
        "defeat",
        -10.575727253742427
      ],
      [
        "writers",
        -10.57588194992004
      ],
      [
        "chosen",
        -10.576047424219722
      ],
      [
        "taught",
        -10.576826878575428
      ],
      [
        "->",
        -10.577306587330021
      ],
      [
        "Administration",
        -10.577346589078246
      ],
      [
        "Muslims",
        -10.577764084039998
      ],
      [
        "gift",
        -10.5778456354269
      ],
      [
        "targets",
        -10.578767052882204
      ],
      [
        "Italian",
        -10.579190204805625
      ],
      [
        "attempted",
        -10.579327518792695
      ],
      [
        "estimates",
        -10.579349363896501
      ],
      [
        "facts",
        -10.579423018056962
      ],
      [
        "Judge",
        -10.580485931287013
      ],
      [
        "Tony",
        -10.581093046439841
      ],
      [
        "drawing",
        -10.581542161812518
      ],
      [
        "virtual",
        -10.582194691052967
      ],
      [
        "capture",
        -10.582784116228684
      ],
      [
        "yard",
        -10.58310221647244
      ],
      [
        "coal",
        -10.583137934768274
      ],
      [
        "parent",
        -10.58322746216955
      ],
      [
        "referred",
        -10.583244153224227
      ],
      [
        "somebody",
        -10.583268824716765
      ],
      [
        "Afghan",
        -10.583623883246913
      ],
      [
        "engineering",
        -10.584221924387226
      ],
      [
        "sensitive",
        -10.584609380028438
      ],
      [
        "Reuters",
        -10.585037782963985
      ],
      [
        "facilities",
        -10.585931421262833
      ],
      [
        "dogs",
        -10.586159669050533
      ],
      [
        "fiction",
        -10.586314791745627
      ],
      [
        "Whether",
        -10.586510803464767
      ],
      [
        "principles",
        -10.586975277983763
      ],
      [
        "torture",
        -10.587140544922784
      ],
      [
        "Report",
        -10.587156001139535
      ],
      [
        "Yeah",
        -10.588122417765085
      ],
      [
        "unusual",
        -10.588620907685183
      ],
      [
        "Credit",
        -10.588643301581474
      ],
      [
        "directed",
        -10.588961470577978
      ],
      [
        "payment",
        -10.589068662998379
      ],
      [
        "sick",
        -10.589202617548926
      ],
      [
        "storm",
        -10.589271571085353
      ],
      [
        "adly",
        -10.589297414590755
      ],
      [
        "reputation",
        -10.589711036564731
      ],
      [
        "Jersey",
        -10.590374400913246
      ],
      [
        "enable",
        -10.590656952861606
      ],
      [
        "regional",
        -10.590731224170174
      ],
      [
        "contribute",
        -10.591523307899823
      ],
      [
        "flying",
        -10.591681838330286
      ],
      [
        "wonderful",
        -10.592038743668798
      ],
      [
        "regularly",
        -10.592371970745742
      ],
      [
        "complicated",
        -10.592458604933958
      ],
      [
        "comic",
        -10.593331915048399
      ],
      [
        "neighborhood",
        -10.593397123942214
      ],
      [
        "Club",
        -10.593521302183804
      ],
      [
        "category",
        -10.594154523136288
      ],
      [
        "Irish",
        -10.59433120294186
      ],
      [
        "afraid",
        -10.594677997058975
      ],
      [
        "amounts",
        -10.594820787418085
      ],
      [
        "Bar",
        -10.594954641405657
      ],
      [
        "Network",
        -10.595747123663932
      ],
      [
        "column",
        -10.596033387867841
      ],
      [
        "stronger",
        -10.596116462259314
      ],
      [
        "Attorney",
        -10.596209494002421
      ],
      [
        "shots",
        -10.59623341006291
      ],
      [
        "trading",
        -10.59637854189235
      ],
      [
        "drivers",
        -10.59640426721472
      ],
      [
        "Real",
        -10.598133061595956
      ],
      [
        "purposes",
        -10.5982078603806
      ],
      [
        "demands",
        -10.598473869057623
      ],
      [
        "phase",
        -10.598663585163791
      ],
      [
        "obtained",
        -10.599369338530918
      ],
      [
        "medium",
        -10.599766862090625
      ],
      [
        "Out",
        -10.59992344413591
      ],
      [
        "journey",
        -10.599962466117763
      ],
      [
        "aspects",
        -10.600215460932393
      ],
      [
        "Year",
        -10.601145001851844
      ],
      [
        "bills",
        -10.601527000459846
      ],
      [
        "ID",
        -10.601784526168952
      ],
      [
        "joint",
        -10.60206052703814
      ],
      [
        "elite",
        -10.602319668964611
      ],
      [
        "payments",
        -10.602381831056663
      ],
      [
        "weird",
        -10.602585150836841
      ],
      [
        "Paris",
        -10.602591004947971
      ],
      [
        "View",
        -10.602683736262586
      ],
      [
        "farm",
        -10.602883792539663
      ],
      [
        "tradition",
        -10.603381815631053
      ],
      [
        "resulting",
        -10.604122356891688
      ],
      [
        "philosophy",
        -10.604263301789816
      ],
      [
        "processes",
        -10.60546313355556
      ],
      [
        "opponents",
        -10.605724337795891
      ],
      [
        "lab",
        -10.605882992472141
      ],
      [
        "implementation",
        -10.606029072115131
      ],
      [
        "",
        -10.606250431679765
      ],
      [
        "permission",
        -10.606525849142791
      ],
      [
        "contributed",
        -10.606561243628503
      ],
      [
        "powers",
        -10.607842230494965
      ],
      [
        "laid",
        -10.608391870758224
      ],
      [
        "aimed",
        -10.609048918966483
      ],
      [
        "remote",
        -10.609432244265962
      ],
      [
        "Libya",
        -10.609467447758318
      ],
      [
        "pounds",
        -10.60955696673728
      ],
      [
        "joke",
        -10.609782884300675
      ],
      [
        "Information",
        -10.609824005124205
      ],
      [
        "profits",
        -10.61033162377531
      ],
      [
        "prominent",
        -10.610480529261185
      ],
      [
        "reflect",
        -10.610655759190394
      ],
      [
        "NHL",
        -10.612727710999431
      ],
      [
        "upcoming",
        -10.613032382574298
      ],
      [
        "marked",
        -10.61304799736507
      ],
      [
        "requests",
        -10.61308270479316
      ],
      [
        "kinds",
        -10.613191664006981
      ],
      [
        "explore",
        -10.613240974109369
      ],
      [
        "Sony",
        -10.61341903952308
      ],
      [
        "Wisconsin",
        -10.613705368661334
      ],
      [
        "Harry",
        -10.61390009752666
      ],
      [
        "king",
        -10.613954063636324
      ],
      [
        "Con",
        -10.6143050773459
      ],
      [
        "sweet",
        -10.61467326084275
      ],
      [
        "everywhere",
        -10.614894636706104
      ],
      [
        "discovery",
        -10.615115367614552
      ],
      [
        "rally",
        -10.61536167816167
      ],
      [
        "Spanish",
        -10.616190815203312
      ],
      [
        "southern",
        -10.616589059795526
      ],
      [
        "exception",
        -10.61664861466707
      ],
      [
        "moon",
        -10.616808153942808
      ],
      [
        "aggressive",
        -10.616853968363188
      ],
      [
        "ticket",
        -10.616855812380303
      ],
      [
        "reduction",
        -10.617048605051517
      ],
      [
        "hardly",
        -10.61709595862653
      ],
      [
        "Add",
        -10.617155959917365
      ],
      [
        "Sports",
        -10.61722070494861
      ],
      [
        "enemies",
        -10.617244609447152
      ],
      [
        "truck",
        -10.617775583550776
      ],
      [
        "tournament",
        -10.61800299421317
      ],
      [
        "index",
        -10.61911075380973
      ],
      [
        "represented",
        -10.619272700079279
      ],
      [
        "selection",
        -10.619459678850582
      ],
      [
        "aspect",
        -10.619480305150946
      ],
      [
        "magic",
        -10.619491933979296
      ],
      [
        "52",
        -10.619504321994915
      ],
      [
        "proved",
        -10.620446835963104
      ],
      [
        "ABC",
        -10.620671644564904
      ],
      [
        "losses",
        -10.620755091252946
      ],
      [
        "logic",
        -10.620843586397914
      ],
      [
        "concluded",
        -10.621410951033422
      ],
      [
        "extension",
        -10.621798182590355
      ],
      [
        "peak",
        -10.622250430229055
      ],
      [
        "Guardian",
        -10.622252690293466
      ],
      [
        "Love",
        -10.622643169831168
      ],
      [
        "processing",
        -10.62453526278748
      ],
      [
        "buildings",
        -10.62542991951346
      ],
      [
        "rating",
        -10.626050282286176
      ],
      [
        "define",
        -10.626463663977233
      ],
      [
        "northern",
        -10.626921696219561
      ],
      [
        "primarily",
        -10.626922871776635
      ],
      [
        "websites",
        -10.627009893549252
      ],
      [
        "scandal",
        -10.627380914472724
      ],
      [
        "Republic",
        -10.627914990794352
      ],
      [
        "firms",
        -10.628844305011922
      ],
      [
        "outcome",
        -10.628893027882853
      ],
      [
        "Joseph",
        -10.628984872329141
      ],
      [
        "Seattle",
        -10.629165925683417
      ],
      [
        "choices",
        -10.630281809261357
      ],
      [
        "permanent",
        -10.630736487870607
      ],
      [
        "forth",
        -10.63085325775841
      ],
      [
        "incredibly",
        -10.63098770294328
      ],
      [
        "fields",
        -10.6310040657504
      ],
      [
        "depending",
        -10.631104898047672
      ],
      [
        "phones",
        -10.631483950972575
      ],
      [
        "arrive",
        -10.633081620884287
      ],
      [
        "trained",
        -10.633082513575035
      ],
      [
        "songs",
        -10.634113170188863
      ],
[...]
